#include "tflite_model.h"

namespace TFLiteModel {

const unsigned char model[] = {
		0x20, 0x00, 0x00, 0x00, 0x54, 0x46, 0x4c, 0x33, 0x00, 0x00, 0x00, 0x00, 0x14, 0x00, 0x20, 0x00,
		0x1c, 0x00, 0x18, 0x00, 0x14, 0x00, 0x10, 0x00, 0x0c, 0x00, 0x00, 0x00, 0x08, 0x00, 0x04, 0x00,
		0x14, 0x00, 0x00, 0x00, 0x1c, 0x00, 0x00, 0x00, 0x88, 0x00, 0x00, 0x00, 0xe0, 0x00, 0x00, 0x00,
		0x70, 0x14, 0x00, 0x00, 0x80, 0x14, 0x00, 0x00, 0xcc, 0x1f, 0x00, 0x00, 0x03, 0x00, 0x00, 0x00,
		0x01, 0x00, 0x00, 0x00, 0x04, 0x00, 0x00, 0x00, 0x52, 0xea, 0xff, 0xff, 0x0c, 0x00, 0x00, 0x00,
		0x1c, 0x00, 0x00, 0x00, 0x40, 0x00, 0x00, 0x00, 0x0f, 0x00, 0x00, 0x00, 0x73, 0x65, 0x72, 0x76,
		0x69, 0x6e, 0x67, 0x5f, 0x64, 0x65, 0x66, 0x61, 0x75, 0x6c, 0x74, 0x00, 0x01, 0x00, 0x00, 0x00,
		0x04, 0x00, 0x00, 0x00, 0x94, 0xff, 0xff, 0xff, 0x0e, 0x00, 0x00, 0x00, 0x04, 0x00, 0x00, 0x00,
		0x0d, 0x00, 0x00, 0x00, 0x71, 0x75, 0x61, 0x6e, 0x74, 0x5f, 0x64, 0x65, 0x6e, 0x73, 0x65, 0x5f,
		0x32, 0x00, 0x00, 0x00, 0x01, 0x00, 0x00, 0x00, 0x04, 0x00, 0x00, 0x00, 0x4e, 0xeb, 0xff, 0xff,
		0x04, 0x00, 0x00, 0x00, 0x07, 0x00, 0x00, 0x00, 0x69, 0x6e, 0x70, 0x75, 0x74, 0x5f, 0x31, 0x00,
		0x02, 0x00, 0x00, 0x00, 0x34, 0x00, 0x00, 0x00, 0x04, 0x00, 0x00, 0x00, 0xdc, 0xff, 0xff, 0xff,
		0x11, 0x00, 0x00, 0x00, 0x04, 0x00, 0x00, 0x00, 0x13, 0x00, 0x00, 0x00, 0x43, 0x4f, 0x4e, 0x56,
		0x45, 0x52, 0x53, 0x49, 0x4f, 0x4e, 0x5f, 0x4d, 0x45, 0x54, 0x41, 0x44, 0x41, 0x54, 0x41, 0x00,
		0x08, 0x00, 0x0c, 0x00, 0x08, 0x00, 0x04, 0x00, 0x08, 0x00, 0x00, 0x00, 0x10, 0x00, 0x00, 0x00,
		0x04, 0x00, 0x00, 0x00, 0x13, 0x00, 0x00, 0x00, 0x6d, 0x69, 0x6e, 0x5f, 0x72, 0x75, 0x6e, 0x74,
		0x69, 0x6d, 0x65, 0x5f, 0x76, 0x65, 0x72, 0x73, 0x69, 0x6f, 0x6e, 0x00, 0x12, 0x00, 0x00, 0x00,
		0x8c, 0x13, 0x00, 0x00, 0x84, 0x13, 0x00, 0x00, 0xf4, 0x12, 0x00, 0x00, 0xcc, 0x12, 0x00, 0x00,
		0x3c, 0x12, 0x00, 0x00, 0x34, 0x12, 0x00, 0x00, 0xa4, 0x05, 0x00, 0x00, 0x9c, 0x05, 0x00, 0x00,
		0x94, 0x05, 0x00, 0x00, 0x84, 0x01, 0x00, 0x00, 0x7c, 0x01, 0x00, 0x00, 0x74, 0x01, 0x00, 0x00,
		0xa4, 0x00, 0x00, 0x00, 0x9c, 0x00, 0x00, 0x00, 0x94, 0x00, 0x00, 0x00, 0x8c, 0x00, 0x00, 0x00,
		0x6c, 0x00, 0x00, 0x00, 0x04, 0x00, 0x00, 0x00, 0x0a, 0xec, 0xff, 0xff, 0x04, 0x00, 0x00, 0x00,
		0x58, 0x00, 0x00, 0x00, 0x0c, 0x00, 0x00, 0x00, 0x08, 0x00, 0x0e, 0x00, 0x08, 0x00, 0x04, 0x00,
		0x08, 0x00, 0x00, 0x00, 0x10, 0x00, 0x00, 0x00, 0x28, 0x00, 0x00, 0x00, 0x00, 0x00, 0x06, 0x00,
		0x08, 0x00, 0x04, 0x00, 0x06, 0x00, 0x00, 0x00, 0x04, 0x00, 0x00, 0x00, 0x01, 0x00, 0x00, 0x00,
		0xd0, 0x07, 0x00, 0x00, 0x00, 0x00, 0x0a, 0x00, 0x10, 0x00, 0x0c, 0x00, 0x08, 0x00, 0x04, 0x00,
		0x0a, 0x00, 0x00, 0x00, 0x02, 0x00, 0x00, 0x00, 0x02, 0x00, 0x00, 0x00, 0x04, 0x00, 0x00, 0x00,
		0x06, 0x00, 0x00, 0x00, 0x32, 0x2e, 0x31, 0x35, 0x2e, 0x30, 0x00, 0x00, 0x6e, 0xec, 0xff, 0xff,
		0x04, 0x00, 0x00, 0x00, 0x10, 0x00, 0x00, 0x00, 0x31, 0x2e, 0x31, 0x34, 0x2e, 0x30, 0x00, 0x00,
		0x00, 0x00, 0x00, 0x00, 0x00, 0x00, 0x00, 0x00, 0x08, 0xe2, 0xff, 0xff, 0x0c, 0xe2, 0xff, 0xff,
		0x10, 0xe2, 0xff, 0xff, 0x96, 0xec, 0xff, 0xff, 0x04, 0x00, 0x00, 0x00, 0xc0, 0x00, 0x00, 0x00,
		0x0d, 0xb1, 0x13, 0x38, 0x11, 0x05, 0xee, 0xf2, 0x0a, 0x25, 0xfd, 0x10, 0x1d, 0x12, 0xe2, 0x2c,
		0xc2, 0x09, 0xd5, 0xf6, 0x13, 0xca, 0xea, 0xf9, 0x33, 0xb6, 0xf3, 0xf8, 0x01, 0xee, 0x1e, 0xf1,
		0xf8, 0xa2, 0x04, 0x16, 0x34, 0xf9, 0xf9, 0xc0, 0x81, 0x5a, 0x1b, 0xf3, 0x5a, 0x13, 0xcf, 0x29,
		0xd8, 0x0a, 0x81, 0xd4, 0x1b, 0xe2, 0x07, 0x04, 0x44, 0xc3, 0xf7, 0x30, 0x0e, 0x18, 0x5f, 0x62,
		0x18, 0xde, 0x05, 0x34, 0x03, 0xf8, 0xf0, 0xf5, 0x4c, 0xfb, 0xef, 0xfa, 0xdb, 0x00, 0xf7, 0x0e,
		0xf3, 0x16, 0x4d, 0x14, 0xfb, 0xbc, 0xfa, 0xf5, 0x1f, 0xd7, 0x0c, 0xec, 0xf4, 0xde, 0xef, 0xb6,
		0xe7, 0x59, 0xd9, 0xf1, 0xfe, 0xff, 0xd6, 0x1a, 0x02, 0xf0, 0x0f, 0x13, 0xd2, 0xf3, 0xde, 0xca,
		0x3a, 0xe8, 0x26, 0x13, 0x08, 0x0c, 0x18, 0xd4, 0xc8, 0x29, 0xfd, 0xea, 0x0a, 0x11, 0xea, 0xff,
		0x07, 0x36, 0x1b, 0xbe, 0xf3, 0x05, 0x14, 0x07, 0x00, 0xe3, 0xf4, 0xf1, 0x2b, 0xf1, 0x49, 0x0d,
		0x19, 0xe3, 0x0e, 0x05, 0xfb, 0x3e, 0x1d, 0x25, 0xd9, 0x51, 0x0d, 0x08, 0xd6, 0x2a, 0xfc, 0xf6,
		0xd7, 0x49, 0xc6, 0xb1, 0xfa, 0x22, 0x3b, 0x11, 0x12, 0xef, 0xe4, 0xf6, 0xa9, 0xe5, 0x51, 0xb2,
		0x34, 0xfb, 0x0d, 0xfb, 0xdf, 0x4e, 0xfc, 0x26, 0xd3, 0x5a, 0x14, 0x03, 0xf9, 0xe4, 0xe4, 0xeb,
		0xe0, 0xe2, 0xff, 0xff, 0xe4, 0xe2, 0xff, 0xff, 0x6a, 0xed, 0xff, 0xff, 0x04, 0x00, 0x00, 0x00,
		0x00, 0x04, 0x00, 0x00, 0x0c, 0x1b, 0x2e, 0xf4, 0xd6, 0x26, 0x07, 0xd7, 0x13, 0xfb, 0x36, 0x1c,
		0xf8, 0xf0, 0x18, 0xdf, 0xf8, 0x07, 0x31, 0x25, 0x27, 0x03, 0x47, 0x38, 0xe4, 0xf6, 0xcd, 0x11,
		0xf0, 0x34, 0xdf, 0x01, 0xa7, 0x99, 0x9a, 0x91, 0xe5, 0xc2, 0xa9, 0x19, 0xae, 0xb7, 0xb7, 0xe7,
		0x12, 0x52, 0xa2, 0xb1, 0xc7, 0xb7, 0x92, 0x95, 0x9d, 0x0d, 0xfa, 0xce, 0x4e, 0xad, 0xcf, 0x21,
		0x71, 0xdc, 0xcf, 0xf0, 0x0a, 0xec, 0x46, 0xd8, 0xe9, 0x40, 0xdd, 0xde, 0xf4, 0xf5, 0x21, 0x26,
		0xe3, 0xfe, 0x53, 0xd9, 0x08, 0x17, 0x22, 0x50, 0x26, 0xdb, 0x4d, 0x42, 0xf3, 0xe3, 0xb9, 0xe3,
		0xd7, 0x52, 0xe5, 0x00, 0x3c, 0x62, 0x58, 0x2d, 0x28, 0x45, 0x07, 0xe4, 0x30, 0x15, 0x24, 0x23,
		0xc7, 0xba, 0x5f, 0x60, 0x56, 0xf1, 0x56, 0x2b, 0x60, 0xe7, 0x06, 0x28, 0xde, 0x18, 0x18, 0xd6,
		0xda, 0x37, 0x54, 0x08, 0xfa, 0x27, 0x12, 0x36, 0x2b, 0x05, 0x32, 0x16, 0xff, 0x2a, 0x25, 0x15,
		0x10, 0x04, 0xf8, 0x1c, 0x06, 0x2e, 0x11, 0x05, 0x0d, 0xee, 0xf1, 0x12, 0xe6, 0x18, 0x19, 0xf9,
		0xf0, 0x22, 0x22, 0xeb, 0xf9, 0x00, 0xd7, 0xf5, 0x14, 0xf5, 0xe3, 0x11, 0x00, 0x12, 0x18, 0x11,
		0xe4, 0xe6, 0xe5, 0x1b, 0x06, 0x14, 0xe4, 0x01, 0x14, 0xe6, 0x21, 0x04, 0xe3, 0xdc, 0x11, 0xe6,
		0xe9, 0xe2, 0xf0, 0xe1, 0xdc, 0xe7, 0xc4, 0xe5, 0xe7, 0xf1, 0xf3, 0x1f, 0xd2, 0xf1, 0xb0, 0xef,
		0x0a, 0x08, 0xc8, 0xf7, 0xe7, 0x21, 0x9e, 0xd4, 0xba, 0x26, 0xf3, 0xd8, 0x3b, 0xf9, 0xed, 0x28,
		0x10, 0x15, 0xd3, 0x02, 0xc4, 0xf9, 0xf5, 0xb7, 0xf7, 0xf3, 0xc2, 0x0f, 0xc8, 0xe8, 0xd8, 0xdd,
		0x20, 0xfd, 0xf6, 0xe0, 0xcb, 0xf3, 0xd1, 0xe5, 0xf9, 0x28, 0x31, 0x1a, 0x29, 0xd8, 0xeb, 0xee,
		0x21, 0xf6, 0x12, 0xe7, 0xbc, 0xf7, 0x8a, 0x8b, 0xc7, 0xb1, 0xd2, 0xdc, 0xc1, 0xd3, 0xd1, 0xbb,
		0x3a, 0x1c, 0xb6, 0xd1, 0xb6, 0xbb, 0xbc, 0x94, 0xb9, 0x30, 0x4d, 0xd0, 0x65, 0x0e, 0xc6, 0x4c,
		0x43, 0xe5, 0xbd, 0xfb, 0x1c, 0x2a, 0x25, 0x64, 0x13, 0x0e, 0x43, 0x14, 0x1d, 0x27, 0x36, 0x32,
		0xcd, 0xe7, 0x1b, 0x33, 0x3d, 0x17, 0x3f, 0x19, 0x36, 0xdb, 0xd5, 0x18, 0xdd, 0x26, 0x0f, 0x02,
		0xde, 0x31, 0x43, 0xf3, 0xfc, 0x20, 0x2e, 0x0a, 0xf0, 0xe6, 0xe6, 0xfa, 0x0c, 0x15, 0xe7, 0xff,
		0x14, 0x05, 0x1c, 0xe3, 0x13, 0xe3, 0x30, 0x20, 0x11, 0x16, 0xea, 0x1a, 0x15, 0x1e, 0xe8, 0xf5,
		0x19, 0x0f, 0xfe, 0xf9, 0xee, 0xf0, 0x11, 0xf0, 0xf2, 0xde, 0x12, 0xdf, 0x10, 0x0c, 0x0e, 0x15,
		0xfc, 0x03, 0xfe, 0x1b, 0x23, 0xde, 0x14, 0x22, 0xd8, 0x1b, 0xe6, 0x0c, 0x02, 0x2a, 0x09, 0x05,
		0x14, 0xf4, 0xed, 0xf6, 0x3e, 0xdd, 0x66, 0xa1, 0xb4, 0x38, 0x8a, 0xb5, 0x2c, 0xe2, 0x30, 0x3e,
		0xb6, 0x5c, 0x6f, 0x10, 0x18, 0x37, 0x47, 0x3f, 0x12, 0xe4, 0x50, 0x2e, 0x21, 0xa0, 0x99, 0xb7,
		0xd3, 0x36, 0x2d, 0x5c, 0x3b, 0x25, 0x25, 0x35, 0x03, 0x0d, 0x25, 0xfc, 0x00, 0xfc, 0x04, 0x0b,
		0xfa, 0xe2, 0x0d, 0x09, 0x04, 0x1d, 0x1d, 0x13, 0x01, 0x06, 0xe2, 0x15, 0xff, 0x0e, 0xf0, 0xe6,
		0xd1, 0x1b, 0xf0, 0x0c, 0xd4, 0xc0, 0xa3, 0xb6, 0xd4, 0xda, 0xec, 0x0f, 0xdb, 0xd9, 0xad, 0xf4,
		0x2a, 0x21, 0xa7, 0xca, 0xbd, 0xf1, 0xa6, 0xaf, 0xd0, 0x1c, 0x20, 0xcb, 0x3b, 0xec, 0xfa, 0xf2,
		0x29, 0xde, 0xb9, 0x07, 0x23, 0x1e, 0x44, 0xbe, 0xf5, 0x4d, 0xdc, 0xa0, 0x2a, 0x19, 0x08, 0x0d,
		0xe5, 0x2c, 0x5a, 0xe7, 0x14, 0x3f, 0x5a, 0x3f, 0x1f, 0xf0, 0x57, 0x3e, 0xe1, 0xd6, 0xac, 0xc6,
		0xc1, 0x52, 0x18, 0x55, 0xe2, 0xaf, 0xa8, 0xeb, 0xfc, 0xac, 0xe7, 0x1e, 0xc1, 0xdc, 0xb9, 0xcc,
		0x48, 0x1c, 0xd5, 0xb3, 0xae, 0xd7, 0xa7, 0xae, 0xb5, 0x2b, 0x1f, 0xe4, 0x1e, 0xdc, 0xee, 0x18,
		0x16, 0xc7, 0xf6, 0xdd, 0x1b, 0x0d, 0xfc, 0xd0, 0x10, 0x30, 0x28, 0xdb, 0x17, 0x12, 0x1d, 0x25,
		0xdd, 0xe0, 0xf3, 0x34, 0xf3, 0xf1, 0xf1, 0xfc, 0xc8, 0x15, 0xfc, 0x03, 0x21, 0x0f, 0x02, 0x0b,
		0x0e, 0xca, 0x30, 0x2b, 0xb7, 0xb9, 0xa2, 0x81, 0xcf, 0xb0, 0xbb, 0xf9, 0xac, 0xc9, 0xbd, 0xcb,
		0x36, 0x1d, 0x8b, 0xb5, 0xa3, 0xce, 0xb2, 0x9a, 0xa5, 0x25, 0x2e, 0xcb, 0x4f, 0xe0, 0xcc, 0x27,
		0x4d, 0xc0, 0xaa, 0xf8, 0x17, 0xfb, 0xed, 0xd6, 0x16, 0xc6, 0xf0, 0x08, 0xd2, 0x03, 0xf5, 0x24,
		0x37, 0x1b, 0xdb, 0xf2, 0x0a, 0xd6, 0xcf, 0xec, 0xe7, 0x11, 0x22, 0xe2, 0x3b, 0x0c, 0x0c, 0x1a,
		0x22, 0xdd, 0xc9, 0x13, 0x05, 0xf2, 0x31, 0xf4, 0xed, 0xf9, 0xff, 0x03, 0xf0, 0xe9, 0x03, 0xf5,
		0xf8, 0xe4, 0x32, 0xe9, 0x0c, 0xee, 0x26, 0x25, 0x0e, 0x1c, 0xf9, 0xfb, 0x1f, 0x21, 0x1c, 0x15,
		0xef, 0x01, 0xfa, 0xfe, 0x62, 0xdf, 0xf7, 0xd6, 0x13, 0xc3, 0xf8, 0xd8, 0x84, 0x36, 0xba, 0x55,
		0x13, 0x1f, 0xea, 0x95, 0xd4, 0xee, 0xc7, 0xe5, 0x8f, 0xef, 0x47, 0x09, 0x13, 0x11, 0xe5, 0xdf,
		0x03, 0xed, 0xb9, 0x04, 0xf5, 0xc6, 0xe8, 0xf5, 0xf5, 0xff, 0xda, 0xdc, 0xd3, 0xe9, 0xfb, 0xe4,
		0x03, 0x30, 0xdf, 0xe8, 0xde, 0x00, 0xfe, 0xf9, 0x00, 0xed, 0xee, 0x37, 0xec, 0x0f, 0x19, 0x11,
		0xe7, 0x02, 0xef, 0xe8, 0xbf, 0xef, 0xe7, 0x0c, 0x06, 0xfe, 0xd4, 0xfd, 0xdf, 0xb8, 0xdc, 0xea,
		0xfc, 0x00, 0xff, 0xc0, 0xd6, 0x1d, 0xef, 0xe5, 0xad, 0x41, 0xd1, 0xca, 0xcf, 0x29, 0x07, 0xd5,
		0xea, 0x02, 0xdc, 0x03, 0xe1, 0x2f, 0x2e, 0x67, 0x15, 0x4a, 0x5c, 0x1d, 0x2e, 0x45, 0x48, 0x32,
		0xd9, 0xa4, 0x32, 0x1c, 0x4b, 0x56, 0x23, 0x1a, 0x19, 0xdc, 0x0e, 0x27, 0xdd, 0xe6, 0x2c, 0xdf,
		0x48, 0x26, 0x3f, 0xd2, 0x03, 0xb5, 0xa6, 0xa4, 0xf4, 0xca, 0xa4, 0x10, 0xbb, 0xd7, 0x9c, 0xbf,
		0x52, 0x5f, 0xcb, 0xdc, 0xb1, 0xf3, 0xc4, 0xbf, 0x9a, 0x29, 0x06, 0xe9, 0x18, 0xbc, 0x0d, 0xf3,
		0xed, 0xa7, 0xa8, 0x32, 0x02, 0x02, 0xdf, 0x1a, 0x18, 0x1c, 0x0e, 0x0b, 0x11, 0x17, 0xf9, 0xf9,
		0xef, 0x12, 0xf4, 0x20, 0xe9, 0x10, 0xd9, 0xe0, 0x14, 0xe2, 0xf5, 0x15, 0xf5, 0xfa, 0xe2, 0x15,
		0xee, 0xfb, 0x05, 0xfd, 0x24, 0x1d, 0x0d, 0xf8, 0xee, 0x24, 0xfb, 0x0d, 0x1d, 0x18, 0x13, 0xf9,
		0x0f, 0x12, 0x22, 0x16, 0x18, 0x00, 0x15, 0xf9, 0x3f, 0xca, 0xf5, 0x12, 0xe5, 0xe2, 0xf8, 0xcf,
		0xb2, 0x34, 0xf4, 0x04, 0xdd, 0x1e, 0xeb, 0x2b, 0x1a, 0xf4, 0x07, 0x1c, 0x1b, 0x01, 0x3b, 0x05,
		0xce, 0xd8, 0x07, 0x00, 0x21, 0xea, 0x0c, 0xf4, 0x0e, 0x0d, 0x10, 0x08, 0xe5, 0xf5, 0xde, 0x11,
		0xff, 0xfa, 0x36, 0xe4, 0x1c, 0xe2, 0x18, 0xb8, 0x9c, 0x0f, 0x9b, 0x09, 0xfe, 0xe8, 0x2c, 0x29,
		0xde, 0x30, 0x1d, 0xe6, 0xe2, 0x1a, 0x26, 0x0c, 0x2d, 0x21, 0x1f, 0x12, 0x3a, 0xc3, 0xb2, 0xee,
		0xf1, 0x0a, 0x1f, 0x1c, 0xfd, 0x24, 0x2e, 0x6f, 0x44, 0x3d, 0x57, 0x19, 0x31, 0x26, 0x27, 0x3f,
		0xce, 0xc2, 0x2f, 0x2e, 0x24, 0x40, 0x11, 0x22, 0x2d, 0xe0, 0x01, 0x1e, 0xcc, 0x12, 0x06, 0xe4,
		0xfe, 0xff, 0x1a, 0xe2, 0x34, 0x20, 0x5f, 0x36, 0x05, 0x48, 0x0f, 0xe6, 0x2c, 0x22, 0x31, 0x3a,
		0xd2, 0xd2, 0x3f, 0x53, 0x4d, 0x49, 0x4d, 0x5b, 0x59, 0xbe, 0xd9, 0x30, 0xbd, 0x0a, 0x0d, 0xad,
		0xc9, 0x32, 0x4b, 0x0f, 0xf4, 0xe6, 0xff, 0xff, 0xf8, 0xe6, 0xff, 0xff, 0x7e, 0xf1, 0xff, 0xff,
		0x04, 0x00, 0x00, 0x00, 0x80, 0x0c, 0x00, 0x00, 0x26, 0x2d, 0x2b, 0x1e, 0x24, 0x18, 0x0e, 0x1b,
		0x01, 0xf6, 0xe0, 0x13, 0x11, 0xee, 0xfd, 0x0a, 0xfd, 0x07, 0xe2, 0xf3, 0xeb, 0xd2, 0xf0, 0xcd,
		0xdd, 0xed, 0xe6, 0x0b, 0xe4, 0x10, 0xf8, 0x1a, 0xee, 0x14, 0x10, 0xed, 0xf8, 0x06, 0xe1, 0xf4,
		0x1d, 0x21, 0x2f, 0x3b, 0x35, 0x3f, 0x2f, 0x19, 0x35, 0x23, 0x24, 0x15, 0x0e, 0x03, 0xf2, 0xf3,
		0xcc, 0xdb, 0xbd, 0xd7, 0xb9, 0xc0, 0xe8, 0xcf, 0xc6, 0xcd, 0xf2, 0xd7, 0xda, 0x01, 0x09, 0x03,
		0x17, 0x02, 0xdd, 0xfb, 0xe9, 0xd9, 0xf5, 0xed, 0xd2, 0xe0, 0xaa, 0xbd, 0xa1, 0xb8, 0xc4, 0xdd,
		0xd5, 0xcf, 0xe9, 0xe7, 0xfe, 0xeb, 0x05, 0xfb, 0x0c, 0xf3, 0xff, 0x02, 0xfe, 0x16, 0x05, 0xf9,
		0xe9, 0x12, 0x13, 0x03, 0x18, 0xde, 0x03, 0x06, 0xf4, 0xeb, 0x0a, 0xee, 0xf0, 0x22, 0xf9, 0x26,
		0x1e, 0x19, 0x2b, 0xf8, 0xe8, 0x0f, 0xea, 0xf3, 0x10, 0x12, 0xfb, 0x11, 0x06, 0x07, 0xed, 0x03,
		0x19, 0xef, 0x10, 0x22, 0x1b, 0x18, 0xdd, 0x0f, 0xf8, 0xfa, 0xf3, 0xe8, 0xc7, 0xfe, 0xf8, 0x0d,
		0xfa, 0x2b, 0x1c, 0x1b, 0x42, 0x24, 0xfd, 0x10, 0xf8, 0xd1, 0xc9, 0xb8, 0xdb, 0x02, 0x32, 0x3d,
		0x26, 0x36, 0x44, 0x0e, 0xfc, 0xff, 0xdd, 0xd6, 0xf1, 0xff, 0xfb, 0xf3, 0x10, 0x2d, 0x1a, 0xfc,
		0x06, 0x37, 0xf6, 0x12, 0xfe, 0xf4, 0x07, 0x0a, 0xee, 0xfc, 0xe5, 0xff, 0x0b, 0x1f, 0x0e, 0xf9,
		0x0a, 0x16, 0x25, 0xfb, 0x20, 0xf7, 0x26, 0x15, 0x22, 0x10, 0x19, 0x19, 0x07, 0x17, 0xf9, 0x26,
		0xf7, 0x29, 0x08, 0x24, 0x0d, 0xfe, 0x1f, 0x08, 0x07, 0x1d, 0xee, 0x20, 0xf7, 0x24, 0x25, 0x13,
		0x10, 0x11, 0x1b, 0xfc, 0x17, 0xf9, 0x05, 0xf3, 0x17, 0xf4, 0x0d, 0x0f, 0x0b, 0x18, 0xf6, 0x24,
		0x1f, 0x24, 0xf3, 0x2a, 0x01, 0xf1, 0x05, 0x11, 0x22, 0x04, 0x20, 0xf2, 0x05, 0xf0, 0x12, 0x23,
		0x18, 0xf6, 0x2d, 0x05, 0x09, 0x0d, 0x28, 0xfa, 0x02, 0x05, 0xfe, 0x03, 0xf9, 0xee, 0x24, 0xf7,
		0x1b, 0x29, 0x24, 0x26, 0x1e, 0x1c, 0xfa, 0x22, 0x25, 0xf2, 0xf2, 0x08, 0x1d, 0x14, 0xf0, 0xfa,
		0x28, 0xf9, 0x2e, 0x24, 0xeb, 0xf7, 0xf5, 0x08, 0x0f, 0x06, 0x06, 0x0c, 0x0d, 0x21, 0x09, 0x06,
		0x01, 0x00, 0x07, 0x0d, 0xf5, 0xf8, 0xf9, 0xff, 0x00, 0xe2, 0xfe, 0xf7, 0xf8, 0xe8, 0x03, 0xfe,
		0x0a, 0x19, 0x17, 0x23, 0x2e, 0x2a, 0x44, 0x2e, 0x26, 0x2a, 0x26, 0x14, 0x20, 0x14, 0x23, 0xfd,
		0x08, 0x0b, 0xfe, 0x01, 0x27, 0x11, 0x0d, 0x24, 0x0a, 0x15, 0x31, 0x31, 0x47, 0x53, 0x4d, 0x35,
		0x14, 0xf8, 0x03, 0xec, 0xf1, 0xd4, 0xd1, 0xeb, 0xe9, 0xc2, 0xdd, 0xd1, 0xef, 0xef, 0x0b, 0xfd,
		0x0e, 0xf2, 0xfd, 0xfb, 0xf9, 0x0e, 0xf9, 0x12, 0x11, 0x06, 0x16, 0xff, 0x27, 0x0f, 0x1c, 0x14,
		0x1c, 0x17, 0x19, 0x01, 0x16, 0x1a, 0xea, 0x06, 0x1a, 0x1c, 0x04, 0x16, 0x1f, 0x11, 0x16, 0x11,
		0xfc, 0x1b, 0x08, 0x14, 0x08, 0x02, 0xec, 0x0f, 0x08, 0xef, 0x00, 0xfb, 0x0b, 0xf5, 0x15, 0xfd,
		0xeb, 0x05, 0x10, 0x12, 0xf9, 0x00, 0xec, 0xe3, 0xe1, 0xe6, 0x07, 0x01, 0xf8, 0xf9, 0xf9, 0xfd,
		0xff, 0x02, 0xef, 0xec, 0x0c, 0xee, 0x16, 0x10, 0xeb, 0x19, 0xee, 0xf9, 0x20, 0xfe, 0x0c, 0x04,
		0x0f, 0x01, 0xf4, 0x05, 0xfa, 0x1e, 0xfe, 0x1b, 0x15, 0xf8, 0x0c, 0xf2, 0x17, 0x1b, 0xf9, 0x15,
		0xfd, 0xfa, 0xfb, 0x0d, 0x28, 0x20, 0x08, 0x0d, 0x1c, 0xea, 0x10, 0x11, 0x06, 0xf4, 0xfd, 0x11,
		0x0a, 0x10, 0x1b, 0x04, 0x1a, 0xf3, 0x15, 0xfc, 0xec, 0x06, 0xfc, 0xfa, 0x20, 0x1e, 0x17, 0x2c,
		0x1a, 0x05, 0x14, 0xfe, 0xf0, 0x08, 0xef, 0xed, 0xd7, 0xd6, 0x03, 0xfb, 0xe7, 0xf8, 0xe3, 0xf9,
		0xfd, 0x01, 0xfd, 0x02, 0xfc, 0xef, 0xe6, 0x06, 0xe1, 0x06, 0xed, 0x07, 0xfc, 0xf5, 0xf0, 0x10,
		0xf8, 0xdb, 0xed, 0xfc, 0xed, 0xf1, 0xe2, 0xdd, 0xc6, 0xb4, 0x9b, 0xb8, 0x8f, 0x8c, 0x92, 0x81,
		0x8f, 0xa1, 0xa7, 0xdb, 0xdf, 0xf8, 0x05, 0x31, 0x4c, 0x5c, 0x41, 0x55, 0x2b, 0x14, 0x0a, 0x16,
		0x07, 0x23, 0xf8, 0x0c, 0xeb, 0xf3, 0xf6, 0xf5, 0x09, 0x1b, 0x05, 0x0f, 0x11, 0x0a, 0x1a, 0x1c,
		0x20, 0x07, 0x18, 0x15, 0xfe, 0xff, 0xfc, 0x09, 0xed, 0xee, 0xf5, 0xe4, 0xf7, 0xd5, 0xf7, 0xcd,
		0xfa, 0x1c, 0x04, 0x11, 0xff, 0x09, 0x08, 0xf9, 0x09, 0x13, 0x09, 0x1b, 0x01, 0xef, 0x0b, 0x06,
		0xf4, 0x03, 0x0f, 0xf9, 0x04, 0x19, 0x06, 0xfa, 0x06, 0x08, 0x07, 0x20, 0x1c, 0x05, 0xfd, 0xfe,
		0x0c, 0xec, 0x0a, 0xf5, 0xfc, 0x0d, 0xfb, 0x08, 0xfc, 0x01, 0xf7, 0x1c, 0x13, 0x17, 0x17, 0x10,
		0x23, 0xf1, 0x0a, 0x01, 0xf5, 0xf7, 0xff, 0x03, 0x11, 0xeb, 0xf8, 0x03, 0xf6, 0x20, 0xff, 0x1d,
		0x1a, 0x17, 0x08, 0x22, 0x1d, 0x35, 0x2a, 0x51, 0x39, 0x55, 0x50, 0x5f, 0x1d, 0x2d, 0x0c, 0x00,
		0xde, 0xe3, 0xf6, 0xe3, 0xc6, 0xd4, 0xee, 0xf5, 0xfc, 0xe0, 0x01, 0xfb, 0xe0, 0x05, 0xe7, 0xed,
		0xf2, 0x00, 0x05, 0x00, 0x08, 0x09, 0x15, 0xf6, 0xea, 0xe6, 0xf9, 0xfa, 0xf3, 0xe4, 0xe6, 0xe7,
		0x08, 0x06, 0x13, 0x19, 0x29, 0x37, 0x25, 0x26, 0x42, 0x3a, 0x36, 0x0e, 0x12, 0x0a, 0xf9, 0x06,
		0x04, 0x0c, 0xfc, 0xdc, 0xf9, 0x0f, 0xe5, 0xf2, 0xf8, 0xfa, 0xfc, 0xea, 0xec, 0x1e, 0x0c, 0x12,
		0xfd, 0x0c, 0x0b, 0xf0, 0xe2, 0x06, 0xe5, 0xe5, 0xdb, 0xee, 0xcd, 0xd0, 0xd2, 0xd1, 0xe6, 0xc9,
		0xeb, 0xc9, 0x01, 0xfe, 0xed, 0xfa, 0x03, 0x15, 0x0e, 0xfe, 0x29, 0x0b, 0x2a, 0x13, 0x2b, 0x1e,
		0x1a, 0x1f, 0x18, 0x19, 0x1d, 0x15, 0x1a, 0x17, 0x19, 0x01, 0x15, 0xef, 0x13, 0xe9, 0xf6, 0x10,
		0x12, 0xf9, 0x10, 0x17, 0xfd, 0x0c, 0x20, 0xff, 0x09, 0x04, 0x10, 0x0c, 0xf4, 0xf7, 0x0d, 0x04,
		0x07, 0x13, 0x13, 0x11, 0x33, 0x3a, 0x45, 0x38, 0x29, 0x1a, 0x21, 0x28, 0x27, 0x24, 0x25, 0x16,
		0x1a, 0xfd, 0xf5, 0x16, 0x0f, 0x05, 0xf3, 0xdf, 0xe2, 0xcc, 0xd5, 0xdc, 0xd1, 0xc1, 0xca, 0xd2,
		0xbd, 0xce, 0xc1, 0xd3, 0xd7, 0xbf, 0xd7, 0xd2, 0xe6, 0xe4, 0x03, 0x16, 0x29, 0x14, 0x10, 0x0c,
		0x04, 0xf5, 0xd6, 0xf7, 0xde, 0xe9, 0xf8, 0xda, 0xd4, 0xc7, 0xdb, 0xc0, 0xdd, 0xeb, 0xd5, 0xe4,
		0xee, 0x04, 0x06, 0x16, 0x2f, 0x39, 0x29, 0x24, 0x00, 0x0b, 0x13, 0xeb, 0xf5, 0xef, 0xeb, 0xc3,
		0xc7, 0xd8, 0xd2, 0xe4, 0xf9, 0xf4, 0x08, 0x02, 0xeb, 0xfd, 0xfd, 0xf7, 0xea, 0xe0, 0xe9, 0x1b,
		0x0c, 0x03, 0x12, 0x25, 0x01, 0xfb, 0x00, 0xfd, 0xf5, 0xf0, 0xf3, 0xd4, 0xe4, 0xd9, 0xeb, 0xf0,
		0xfc, 0x00, 0xe8, 0x0f, 0xf7, 0xfb, 0x03, 0x0f, 0x07, 0x0c, 0x0f, 0x07, 0x16, 0xf0, 0xff, 0x01,
		0x0e, 0x05, 0x1f, 0x0a, 0x13, 0x0c, 0x2a, 0x1f, 0x1a, 0x34, 0x2e, 0x3e, 0x16, 0x15, 0x06, 0xed,
		0xdc, 0xc3, 0xa7, 0xb0, 0xa7, 0xb5, 0xc9, 0xdd, 0xd3, 0xe9, 0xdc, 0xf3, 0xe9, 0xf0, 0x08, 0xff,
		0x24, 0xfe, 0x11, 0x0d, 0x10, 0x14, 0xe3, 0xef, 0xe7, 0xfb, 0x13, 0xea, 0xfd, 0xfd, 0x05, 0x07,
		0x24, 0x21, 0x0a, 0x0c, 0x0f, 0x18, 0x11, 0x38, 0x2d, 0x19, 0x40, 0x1d, 0x3b, 0x47, 0x3d, 0x49,
		0xf0, 0xf9, 0xeb, 0xc9, 0xd8, 0xd6, 0xd0, 0xe2, 0xea, 0xda, 0xe2, 0xf2, 0x08, 0xfd, 0x08, 0xf3,
		0x1d, 0xf5, 0x12, 0xe5, 0xf2, 0xe8, 0xe0, 0xd8, 0xe0, 0xda, 0xcf, 0xc2, 0xa3, 0x95, 0xb9, 0x97,
		0xd0, 0xc7, 0xe2, 0xf2, 0x15, 0x13, 0x49, 0x42, 0x38, 0x36, 0x2e, 0x25, 0x12, 0x04, 0x13, 0xec,
		0xff, 0xd3, 0xdb, 0xca, 0xd5, 0xf0, 0xe1, 0xe7, 0x00, 0xf7, 0xfe, 0xe8, 0xfe, 0xe3, 0xe0, 0xf7,
		0xf6, 0xf3, 0x07, 0xef, 0x00, 0xde, 0xed, 0xfc, 0xfc, 0xff, 0x1a, 0x24, 0x13, 0x27, 0x43, 0x34,
		0x3b, 0x3b, 0x30, 0x34, 0x21, 0x17, 0x2d, 0x1f, 0x1e, 0x11, 0x14, 0x0b, 0x18, 0xf7, 0x17, 0x1b,
		0x04, 0x0f, 0x07, 0x0d, 0xe1, 0xd4, 0xee, 0xff, 0xe1, 0xe9, 0xfa, 0xe4, 0xe5, 0xef, 0xe2, 0xd4,
		0xd9, 0xed, 0xce, 0xb4, 0xc5, 0xb8, 0xa2, 0x98, 0xa0, 0xac, 0xbc, 0xd6, 0xc9, 0xdc, 0xec, 0xf7,
		0x0d, 0x14, 0x09, 0x01, 0x06, 0x15, 0xfe, 0x25, 0x19, 0x1c, 0x03, 0x28, 0x0b, 0xf9, 0x16, 0x11,
		0x2d, 0x39, 0x1e, 0x1f, 0x14, 0x1f, 0x00, 0xf9, 0xe7, 0xf2, 0xcb, 0xe4, 0xc9, 0xd5, 0xc2, 0xd0,
		0xe1, 0xf3, 0xed, 0xeb, 0xf8, 0x05, 0x15, 0x4f, 0x3f, 0x3e, 0x32, 0x1e, 0xf9, 0xee, 0x01, 0xfb,
		0x18, 0x0a, 0xec, 0xda, 0xe3, 0xe2, 0xdd, 0xba, 0xf5, 0xf7, 0xf8, 0xff, 0x08, 0x0d, 0x2f, 0x33,
		0x02, 0x13, 0x1a, 0x14, 0x01, 0x01, 0xea, 0xf9, 0x10, 0x02, 0x21, 0xf8, 0xfd, 0x09, 0x1a, 0xfd,
		0x0c, 0xe9, 0xff, 0xf7, 0xf2, 0x0d, 0x13, 0x06, 0x1f, 0xf9, 0x1f, 0x18, 0x3c, 0x2c, 0x38, 0x47,
		0x44, 0x37, 0x1b, 0x2e, 0x18, 0x0f, 0x37, 0x1b, 0x2f, 0xf2, 0xf5, 0xf2, 0x14, 0x1e, 0x16, 0x33,
		0x25, 0x1a, 0x46, 0x3a, 0x4a, 0x56, 0x33, 0x35, 0x16, 0xf2, 0xd7, 0xd8, 0xb1, 0xb4, 0xb0, 0xbf,
		0xc5, 0xcb, 0xd3, 0xc3, 0xd9, 0xef, 0xfe, 0xef, 0x0a, 0x10, 0x00, 0x0b, 0xf4, 0x12, 0x2a, 0x2d,
		0x1c, 0x35, 0x28, 0x37, 0x08, 0x34, 0x1c, 0x1f, 0xe5, 0xf4, 0x17, 0xec, 0x11, 0xf1, 0xf3, 0xed,
		0xef, 0xfa, 0xf8, 0xe5, 0xf5, 0xee, 0xec, 0xf2, 0xf9, 0x12, 0x13, 0xf9, 0x06, 0x0e, 0xee, 0x11,
		0x0c, 0xef, 0xe8, 0xe4, 0x15, 0x03, 0x0e, 0x15, 0xfd, 0xeb, 0x09, 0x0d, 0x10, 0xf0, 0x02, 0xcd,
		0xeb, 0xde, 0x15, 0x0a, 0xff, 0xec, 0x0f, 0x19, 0x20, 0x07, 0xd3, 0xfd, 0xfe, 0xf6, 0x05, 0xe7,
		0xdd, 0xe5, 0xf9, 0x05, 0xf4, 0x34, 0x03, 0x19, 0x11, 0xfd, 0xdf, 0xe5, 0xd6, 0xf4, 0xdc, 0xfc,
		0x07, 0xe2, 0xf8, 0x2f, 0xfb, 0x08, 0x01, 0x09, 0xeb, 0x02, 0x00, 0xe4, 0xdc, 0xf6, 0x1b, 0xfa,
		0xf1, 0x07, 0xe5, 0xf3, 0x08, 0x05, 0xe0, 0x06, 0x1f, 0xe8, 0x13, 0xea, 0xf8, 0xf8, 0xda, 0xf0,
		0xd7, 0xcd, 0x05, 0xdc, 0xff, 0xe8, 0x23, 0x13, 0x04, 0xed, 0xfa, 0xd3, 0xfb, 0xc7, 0xe2, 0xed,
		0x1a, 0x29, 0xf1, 0x2c, 0x04, 0xf6, 0xef, 0x07, 0xf7, 0x1d, 0x1e, 0x1f, 0x20, 0x21, 0xf3, 0x0f,
		0x0f, 0x12, 0xf6, 0x06, 0x24, 0x18, 0x22, 0x28, 0x0b, 0x0d, 0xf6, 0xf7, 0x02, 0x07, 0x0d, 0x1f,
		0x25, 0xf0, 0x0f, 0x21, 0x21, 0x02, 0x21, 0x0f, 0x1e, 0x27, 0x04, 0xee, 0x13, 0x08, 0x22, 0xf4,
		0x15, 0x20, 0x26, 0x09, 0x0d, 0x0c, 0x23, 0x08, 0x16, 0x15, 0x01, 0x1f, 0x09, 0x21, 0xf5, 0x0d,
		0x22, 0x05, 0x1d, 0x0f, 0x03, 0x04, 0xf9, 0xf9, 0x27, 0xfd, 0x1f, 0xf6, 0xf4, 0x08, 0x26, 0x09,
		0x24, 0xf0, 0x1c, 0x18, 0x19, 0x00, 0x1d, 0x04, 0x09, 0x05, 0x0b, 0x1d, 0x0c, 0x12, 0xee, 0x11,
		0x0b, 0x26, 0x1c, 0x08, 0xfa, 0xf9, 0x1e, 0x07, 0x1d, 0x2e, 0x40, 0x29, 0x4e, 0x41, 0x40, 0x3b,
		0x36, 0x11, 0xfb, 0x10, 0x1d, 0xfb, 0xf3, 0xf4, 0xfd, 0xfc, 0x00, 0x01, 0xfe, 0xe7, 0x12, 0x20,
		0x11, 0x37, 0x3d, 0x50, 0x2e, 0x30, 0x16, 0x17, 0x12, 0x24, 0x2a, 0x0b, 0x16, 0xe9, 0xf6, 0xdb,
		0xdf, 0xdb, 0xe9, 0xfe, 0xe8, 0x04, 0xfc, 0xf1, 0x0c, 0xdd, 0xd8, 0xf7, 0xca, 0xc2, 0xc7, 0xab,
		0xb7, 0xbe, 0xc0, 0xdc, 0xd2, 0xdc, 0xdb, 0xd3, 0xd8, 0xe1, 0xef, 0x01, 0x00, 0x18, 0xff, 0x1f,
		0xff, 0xf4, 0x07, 0x0e, 0xf8, 0x06, 0x08, 0xfd, 0x0b, 0x09, 0xdd, 0x03, 0xef, 0xf9, 0xf4, 0xe6,
		0xed, 0xea, 0xdc, 0xe4, 0xc7, 0xcd, 0xcb, 0xb7, 0x1f, 0x1b, 0xec, 0x17, 0xed, 0x14, 0x1a, 0xf0,
		0xed, 0x1a, 0xff, 0x16, 0x20, 0xf4, 0x1f, 0x01, 0x05, 0x11, 0x0a, 0xf1, 0xf6, 0x23, 0x15, 0x06,
		0x10, 0xf4, 0xe5, 0x14, 0x11, 0x16, 0x0e, 0x10, 0x1d, 0xf2, 0xf4, 0x1e, 0xf4, 0xf2, 0x0b, 0x16,
		0xef, 0x18, 0xfd, 0xf7, 0x17, 0x0b, 0x25, 0xec, 0xf4, 0x01, 0x12, 0x0a, 0xe8, 0xfb, 0x0e, 0x28,
		0x1b, 0xf6, 0xf7, 0x0c, 0xf6, 0x08, 0x1d, 0x00, 0xf1, 0x11, 0xf6, 0x0f, 0xf9, 0x17, 0xe0, 0x0d,
		0xea, 0x11, 0x1d, 0x1e, 0xf9, 0x16, 0x0b, 0xe4, 0x02, 0x08, 0x04, 0x03, 0x16, 0xf2, 0xf1, 0x16,
		0x22, 0x09, 0x12, 0xec, 0x05, 0xf5, 0x15, 0xec, 0xfb, 0x07, 0xfc, 0x3b, 0xc2, 0xcd, 0xd0, 0xd8,
		0xe3, 0xfb, 0xf0, 0x21, 0x11, 0x11, 0x0b, 0xfa, 0x16, 0x10, 0x1c, 0x17, 0x05, 0x25, 0x0a, 0x18,
		0x1a, 0x1c, 0x04, 0xf7, 0x04, 0x0b, 0x14, 0xef, 0x15, 0xee, 0xdb, 0xec, 0xda, 0xe2, 0xff, 0xc0,
		0xce, 0xbc, 0xf2, 0xdd, 0xd5, 0xdc, 0x23, 0x19, 0x22, 0x11, 0x16, 0xff, 0x18, 0x01, 0x19, 0xfd,
		0xdb, 0xe4, 0xdf, 0xb3, 0xb8, 0x9e, 0xc4, 0xc8, 0xc0, 0xda, 0xd5, 0xbd, 0xe0, 0xee, 0x01, 0x12,
		0xe0, 0xda, 0xf8, 0xdd, 0xd6, 0xdf, 0xf1, 0xef, 0xf3, 0xf9, 0xd8, 0xd9, 0xea, 0xfe, 0x20, 0x2f,
		0x29, 0x47, 0x50, 0x47, 0x2b, 0x1f, 0x2d, 0x15, 0x1c, 0x11, 0xfd, 0x07, 0x08, 0xf0, 0x02, 0xe6,
		0xfb, 0x23, 0x27, 0xf5, 0x00, 0x1c, 0x2f, 0xf3, 0x04, 0xf9, 0xff, 0xff, 0x26, 0x20, 0x29, 0x1b,
		0xf5, 0x22, 0x15, 0x12, 0x10, 0x12, 0x1d, 0x25, 0x1e, 0x26, 0x13, 0xf9, 0x10, 0x04, 0x0a, 0x17,
		0x1f, 0xfe, 0x27, 0x1a, 0x14, 0x0d, 0x05, 0x07, 0x1d, 0x06, 0x0d, 0x28, 0x13, 0xf0, 0xf2, 0x1c,
		0x09, 0x0a, 0x14, 0xf7, 0x07, 0x0e, 0x01, 0x0e, 0x03, 0x13, 0xf1, 0x1a, 0x17, 0x05, 0x22, 0xed,
		0x19, 0x27, 0x04, 0xf5, 0x0a, 0x1f, 0xf5, 0x08, 0x18, 0x1d, 0xfe, 0xff, 0x1f, 0x1c, 0xf4, 0x10,
		0x00, 0x1f, 0xf3, 0x1f, 0x09, 0x18, 0x11, 0x12, 0x00, 0xff, 0x03, 0xfa, 0xf8, 0x07, 0x16, 0x14,
		0x27, 0x26, 0x03, 0x00, 0x24, 0x1e, 0x09, 0xf9, 0x0f, 0x0d, 0xf0, 0x07, 0x27, 0x1c, 0x1c, 0x1f,
		0x24, 0x2a, 0x12, 0xef, 0xff, 0x1f, 0xfe, 0xf2, 0x08, 0xfe, 0x09, 0x0f, 0x0a, 0x10, 0x14, 0x22,
		0x23, 0x12, 0xf0, 0x0f, 0x1d, 0x0c, 0x26, 0xfd, 0x2a, 0x28, 0x05, 0x06, 0xf6, 0xf9, 0x2b, 0xff,
		0xfa, 0xf8, 0x20, 0x04, 0x19, 0x22, 0x14, 0x0d, 0x21, 0x23, 0x03, 0x0e, 0x1e, 0x19, 0xf0, 0xfd,
		0xf0, 0x15, 0xf8, 0x04, 0x25, 0xfd, 0x02, 0x29, 0xf6, 0xf7, 0x10, 0x20, 0xfd, 0x11, 0xfa, 0x1d,
		0x26, 0x15, 0xf1, 0x14, 0xf9, 0x10, 0xfa, 0xfa, 0x04, 0x1d, 0x24, 0x28, 0xfa, 0x09, 0xfd, 0x0c,
		0x15, 0x10, 0x04, 0x27, 0xfd, 0x1a, 0xfc, 0x1e, 0x20, 0x1c, 0x0d, 0x0c, 0xfe, 0x00, 0xe9, 0xf2,
		0xeb, 0xd4, 0xd3, 0xc7, 0xac, 0xb6, 0xaf, 0xc9, 0xe9, 0xcc, 0xfc, 0x09, 0x0c, 0x24, 0x2a, 0x42,
		0x3c, 0x59, 0x47, 0x2d, 0x26, 0x0e, 0x2c, 0x0e, 0x16, 0x15, 0x13, 0xea, 0xe5, 0xfb, 0xd4, 0xcb,
		0xdb, 0xf5, 0xed, 0xd4, 0xf1, 0x04, 0xf5, 0xfa, 0xe1, 0x02, 0xde, 0xdf, 0xe5, 0xd7, 0xd1, 0xde,
		0xd6, 0xd7, 0xd1, 0xd0, 0xe7, 0xc7, 0xd4, 0xd6, 0xdf, 0xf8, 0xef, 0xf6, 0xfc, 0xef, 0xef, 0xf7,
		0x06, 0xf4, 0xea, 0xe2, 0xe1, 0xe7, 0xe4, 0xf2, 0xf7, 0xfa, 0xf3, 0x16, 0xf9, 0x18, 0x14, 0xf8,
		0x09, 0xfa, 0x0b, 0x11, 0x09, 0x00, 0x06, 0x08, 0xfc, 0xf0, 0x0a, 0x0f, 0x34, 0x37, 0x38, 0x37,
		0x28, 0x30, 0x33, 0x31, 0x10, 0x2b, 0x0a, 0x0c, 0x1d, 0x11, 0x15, 0x10, 0xf7, 0x19, 0x27, 0x08,
		0xfe, 0x10, 0x09, 0xfe, 0x0d, 0x12, 0x00, 0xee, 0x03, 0xef, 0xfe, 0xf1, 0xef, 0xfa, 0xfd, 0x17,
		0x1f, 0x21, 0xf7, 0x23, 0x23, 0x14, 0x25, 0x14, 0x09, 0xe8, 0xe0, 0xd5, 0xe8, 0xbf, 0xbd, 0xb8,
		0xdd, 0xf4, 0xd6, 0xee, 0xe9, 0xe4, 0xdf, 0x0e, 0xf7, 0x1b, 0xf1, 0xfe, 0xeb, 0xe6, 0xeb, 0xef,
		0xe4, 0xe1, 0xd3, 0xd1, 0xc4, 0xc8, 0xed, 0xf4, 0xed, 0x09, 0x1d, 0x15, 0x0a, 0x2c, 0x20, 0x2d,
		0x1d, 0x3b, 0x2a, 0x37, 0x19, 0x37, 0x0b, 0x27, 0x15, 0xf9, 0x0c, 0xee, 0xe6, 0xf6, 0xd1, 0xd0,
		0xe9, 0xe4, 0xf0, 0xf5, 0x01, 0xec, 0xeb, 0xf0, 0x07, 0xf1, 0xe3, 0xef, 0xe1, 0xf2, 0xf0, 0x15,
		0x03, 0xf9, 0xf8, 0xe6, 0xdc, 0xfa, 0xe7, 0xf9, 0xe6, 0xed, 0xf5, 0xf0, 0xe0, 0xf0, 0xe0, 0xf4,
		0xee, 0xfc, 0x04, 0xf8, 0x19, 0x05, 0x21, 0x18, 0x12, 0x32, 0x03, 0x2b, 0x06, 0x0c, 0xe6, 0x0c,
		0x1d, 0x1e, 0x00, 0x00, 0xee, 0xff, 0xf3, 0xf6, 0xf9, 0x02, 0xfa, 0xcd, 0xc8, 0xdc, 0xe3, 0xf1,
		0xf7, 0xdb, 0xfa, 0x03, 0xfc, 0xfd, 0xf5, 0x01, 0xf0, 0xe1, 0x09, 0xdd, 0xfe, 0xe5, 0x04, 0x05,
		0xf2, 0x13, 0x13, 0xfd, 0x1a, 0xfd, 0x13, 0x1a, 0x0b, 0xf7, 0x12, 0x01, 0x17, 0x23, 0x06, 0x28,
		0x08, 0x21, 0x16, 0x0f, 0xcc, 0xd6, 0xd9, 0xd2, 0xd7, 0xe7, 0xcb, 0xd0, 0xcb, 0xe3, 0xcd, 0xe6,
		0xfe, 0xfb, 0xfd, 0xe6, 0xfe, 0xff, 0xf5, 0xe8, 0xf8, 0xeb, 0xf9, 0xc6, 0xee, 0xe3, 0xe1, 0xe8,
		0x08, 0xf5, 0xeb, 0xed, 0xdb, 0x12, 0x0b, 0xfb, 0x02, 0x27, 0x03, 0xee, 0xe6, 0xe9, 0xeb, 0xfa,
		0xfe, 0xd8, 0xdc, 0xdd, 0xd0, 0xd2, 0xd9, 0xf4, 0xf9, 0xd7, 0xff, 0xec, 0xde, 0xdc, 0xeb, 0xff,
		0x17, 0xff, 0x03, 0x05, 0x15, 0x31, 0x35, 0x37, 0x41, 0x66, 0x65, 0x4b, 0x46, 0x33, 0x3b, 0x37,
		0x33, 0x15, 0x1d, 0x18, 0xff, 0xec, 0xf5, 0x01, 0xdb, 0xe0, 0xfe, 0xe7, 0x12, 0x19, 0xf6, 0x29,
		0x10, 0xf9, 0x0e, 0x0e, 0x10, 0xef, 0xfc, 0xe2, 0x21, 0x0c, 0xfd, 0x0c, 0x02, 0x19, 0xf6, 0x0e,
		0x04, 0x0d, 0x11, 0xff, 0x16, 0xef, 0xfb, 0xec, 0xfd, 0x05, 0xf3, 0x02, 0xe8, 0xf2, 0xf2, 0xe0,
		0xe8, 0xdb, 0xdd, 0xfa, 0x04, 0x0e, 0x12, 0x09, 0x23, 0x23, 0x2f, 0x35, 0x22, 0x19, 0x2d, 0x10,
		0x06, 0xec, 0xef, 0xfc, 0xee, 0xd2, 0xf1, 0xcd, 0xd9, 0xdc, 0xe9, 0xe7, 0xe9, 0xe4, 0xe2, 0xe3,
		0xec, 0xea, 0xcc, 0xe1, 0xe6, 0xd8, 0xcd, 0xb6, 0xd2, 0xc8, 0xec, 0xfd, 0xf4, 0x03, 0x0e, 0x28,
		0x25, 0x18, 0x15, 0xff, 0x08, 0x11, 0x0a, 0x04, 0xf7, 0xf1, 0xfb, 0xf7, 0xdb, 0xec, 0xf4, 0xf4,
		0xf5, 0x01, 0xec, 0x00, 0xed, 0x05, 0x1f, 0xfa, 0x17, 0x0d, 0x0c, 0x1c, 0x1a, 0xf8, 0x03, 0x15,
		0xee, 0xf1, 0xfd, 0xe1, 0x0d, 0xe4, 0x04, 0xe2, 0x23, 0x10, 0x0a, 0x20, 0x0f, 0x21, 0x0e, 0xf5,
		0xf6, 0xe6, 0x07, 0x1f, 0x1b, 0xef, 0x07, 0xf5, 0xf4, 0x1a, 0xf0, 0x0a, 0xf2, 0x11, 0xf9, 0x14,
		0xfb, 0x10, 0x01, 0x24, 0x0c, 0x1d, 0x12, 0x20, 0x06, 0x1b, 0xe8, 0x18, 0x17, 0x16, 0x21, 0x19,
		0x3c, 0x11, 0x19, 0x30, 0x09, 0x25, 0x15, 0x0a, 0x37, 0x2d, 0x27, 0x0b, 0x27, 0x11, 0x16, 0x1e,
		0xfa, 0xd9, 0xe1, 0xde, 0xde, 0xc6, 0xf4, 0xd8, 0xeb, 0xdd, 0x04, 0xd7, 0xdd, 0xf8, 0xd8, 0xf2,
		0x0d, 0x00, 0x08, 0xf7, 0xf9, 0xfb, 0xee, 0xf9, 0xec, 0xf8, 0xe4, 0xe3, 0xe5, 0xf7, 0xf7, 0x09,
		0x17, 0xfe, 0x0a, 0xfc, 0x0f, 0x09, 0xe6, 0x00, 0x06, 0x18, 0xf7, 0x11, 0xfe, 0x11, 0x0e, 0x19,
		0x25, 0x13, 0x18, 0x00, 0xf5, 0x29, 0x1b, 0x1b, 0x18, 0x18, 0x18, 0x04, 0x0c, 0xef, 0x08, 0x19,
		0x0c, 0x17, 0x0a, 0x26, 0x2f, 0x1c, 0x20, 0x07, 0x2f, 0x30, 0x0f, 0x2c, 0x1e, 0x0f, 0xee, 0xe2,
		0xf7, 0xfe, 0xfb, 0x0c, 0xe2, 0xf2, 0x12, 0x0a, 0xf5, 0x0f, 0xf8, 0xe3, 0xe1, 0xef, 0xed, 0xfc,
		0x05, 0x07, 0xff, 0xe6, 0xe7, 0x06, 0xe4, 0xe9, 0xf6, 0xdd, 0xec, 0xe0, 0x04, 0xe0, 0xf6, 0xee,
		0x00, 0x11, 0xf4, 0xf9, 0xfc, 0xf6, 0xf0, 0xff, 0xf5, 0x01, 0xf2, 0x0d, 0x04, 0x0f, 0x00, 0x25,
		0x20, 0x08, 0xfa, 0x08, 0x08, 0x1a, 0x19, 0x0a, 0x13, 0x0c, 0xf5, 0xf2, 0x00, 0xf4, 0xd2, 0xf5,
		0xdd, 0xe1, 0xe4, 0xed, 0xf3, 0x00, 0xe5, 0x05, 0xfd, 0x14, 0x20, 0x1e, 0x32, 0x35, 0x6d, 0x5b,
		0x3e, 0x30, 0x03, 0x10, 0x02, 0xf6, 0x0d, 0xc7, 0xc6, 0xa8, 0xcd, 0xbd, 0xdd, 0xf3, 0xd4, 0xf1,
		0xf4, 0xf4, 0xe7, 0x1b, 0x01, 0xf4, 0x0d, 0x19, 0x0e, 0x26, 0x14, 0x17, 0x04, 0x08, 0x07, 0x22,
		0x06, 0xf6, 0x14, 0xf9, 0x17, 0x30, 0x11, 0x3a, 0x58, 0x55, 0x2a, 0x2f, 0x37, 0x15, 0x12, 0x28,
		0x24, 0x01, 0x17, 0xfc, 0x25, 0x21, 0x22, 0x16, 0x0e, 0x1a, 0x2a, 0x0a, 0x02, 0x06, 0x1c, 0x10,
		0xfb, 0xf6, 0xe3, 0x0b, 0xe1, 0xf9, 0xee, 0xff, 0xeb, 0x03, 0xdf, 0xed, 0xe7, 0x0a, 0x0e, 0x11,
		0xee, 0x0f, 0x14, 0xf2, 0x1f, 0xf6, 0x15, 0x11, 0xf7, 0x0b, 0x00, 0x0f, 0xf7, 0xf4, 0xf6, 0x11,
		0xed, 0x0e, 0x03, 0x04, 0x05, 0x0e, 0x19, 0x1d, 0xf3, 0x0d, 0xf0, 0xfe, 0x04, 0xea, 0xf5, 0xe6,
		0x0d, 0xf4, 0x0a, 0xe1, 0x02, 0xe8, 0x00, 0x0c, 0xfd, 0x07, 0xdc, 0xd5, 0xee, 0xe3, 0xf6, 0xcd,
		0xfa, 0xf0, 0xd7, 0xe2, 0xfe, 0xd7, 0xef, 0x17, 0x1f, 0x02, 0x38, 0x41, 0x2a, 0x3e, 0x1b, 0x17,
		0x10, 0xed, 0x05, 0x00, 0xfb, 0xd9, 0xe1, 0xef, 0xdd, 0xdd, 0xfb, 0x12, 0x16, 0x29, 0x17, 0x2b,
		0x2b, 0x14, 0x43, 0x4f, 0x68, 0x4f, 0x6b, 0x55, 0x64, 0x31, 0x23, 0x33, 0xd4, 0xfe, 0xd0, 0xc9,
		0xbd, 0x97, 0x8b, 0x91, 0x98, 0xaf, 0xce, 0xe0, 0xd2, 0xdb, 0x05, 0x2a, 0x1c, 0x40, 0x31, 0x5b,
		0x3e, 0x53, 0x2f, 0x34, 0x30, 0x24, 0x2b, 0x01, 0xfe, 0x22, 0xfe, 0x10, 0x0b, 0x04, 0xd6, 0x0a,
		0x04, 0x04, 0x0e, 0x0f, 0x13, 0x0d, 0xee, 0x04, 0x0c, 0xf1, 0xf5, 0xe9, 0x00, 0xf9, 0xd3, 0xf4,
		0xec, 0xfb, 0xe7, 0xf6, 0x03, 0xf7, 0x0c, 0x0e, 0x1c, 0xeb, 0x07, 0xe9, 0xf8, 0xe3, 0xe6, 0x00,
		0xe5, 0xdc, 0xf8, 0xdb, 0xe3, 0xd4, 0xfe, 0xe7, 0xf9, 0xfa, 0xfb, 0xf7, 0xf1, 0xe8, 0xe7, 0xef,
		0xdf, 0xee, 0xfd, 0xdc, 0xda, 0xef, 0xec, 0xec, 0xfa, 0x01, 0xec, 0xf8, 0xff, 0xf2, 0xf0, 0xf2,
		0x06, 0xf8, 0x14, 0xfc, 0x13, 0x0a, 0x1c, 0x19, 0x16, 0x04, 0x15, 0xf3, 0xe9, 0xe8, 0xf7, 0xee,
		0x06, 0xdd, 0xf1, 0xfd, 0xd9, 0xf5, 0xeb, 0x00, 0xea, 0xef, 0xec, 0xed, 0xe3, 0xca, 0xc9, 0xb4,
		0xbf, 0xae, 0xae, 0xb8, 0xe4, 0xe3, 0xee, 0xda, 0xf3, 0x06, 0xea, 0x07, 0xf2, 0xea, 0xd5, 0xdc,
		0xd3, 0xc1, 0xc5, 0xba, 0xc5, 0xd5, 0xd9, 0xf3, 0xf6, 0x22, 0x1a, 0x16, 0x1e, 0x33, 0x3f, 0x27,
		0x4c, 0x4c, 0x1d, 0x18, 0x04, 0x1d, 0xfa, 0xf1, 0x00, 0xe3, 0xdc, 0xd8, 0xda, 0xcf, 0xbe, 0xe4,
		0xd2, 0xef, 0xee, 0xf5, 0x12, 0x10, 0xee, 0x20, 0x10, 0x09, 0x1c, 0xfd, 0x14, 0x21, 0x1b, 0x05,
		0x12, 0x12, 0x02, 0x18, 0x26, 0x15, 0x1c, 0x21, 0x08, 0x1b, 0x1e, 0xf2, 0x07, 0x27, 0x15, 0xf8,
		0x0e, 0x14, 0xff, 0x0a, 0xf2, 0x15, 0x15, 0xfe, 0x24, 0x1c, 0x2e, 0x13, 0x16, 0x12, 0x0b, 0xf9,
		0xf5, 0xf1, 0x01, 0xe2, 0xec, 0xde, 0xe2, 0x09, 0xef, 0x09, 0xd3, 0xc4, 0xf1, 0xe1, 0xee, 0xe3,
		0xd9, 0xef, 0xe4, 0xd3, 0xe8, 0xd3, 0xe4, 0xed, 0xeb, 0xf3, 0x00, 0xea, 0xf6, 0xf0, 0x00, 0xdc,
		0xff, 0xf2, 0xd8, 0x01, 0x05, 0xf3, 0xd2, 0x01, 0xe4, 0xdc, 0xd8, 0xe6, 0x06, 0xf0, 0x16, 0x0e,
		0xf1, 0xfe, 0xdd, 0xda, 0x00, 0xe4, 0xe9, 0x00, 0xf9, 0xf8, 0xe8, 0x07, 0x07, 0xfb, 0xf6, 0x1b,
		0x04, 0x1b, 0xfd, 0x06, 0x06, 0x23, 0x0c, 0x08, 0x88, 0xf3, 0xff, 0xff, 0x0e, 0xfe, 0xff, 0xff,
		0x04, 0x00, 0x00, 0x00, 0x80, 0x00, 0x00, 0x00, 0x24, 0x16, 0x00, 0x00, 0xa2, 0xd0, 0xff, 0xff,
		0x73, 0x24, 0x00, 0x00, 0x91, 0x26, 0x00, 0x00, 0x78, 0x08, 0x00, 0x00, 0x00, 0xf8, 0xff, 0xff,
		0xc2, 0xda, 0xff, 0xff, 0xbe, 0xf3, 0xff, 0xff, 0x85, 0xcb, 0xff, 0xff, 0x07, 0x18, 0x00, 0x00,
		0x8a, 0x0b, 0x00, 0x00, 0x7e, 0x01, 0x00, 0x00, 0x7f, 0x32, 0x00, 0x00, 0xcd, 0x0c, 0x00, 0x00,
		0x74, 0xd9, 0xff, 0xff, 0x6a, 0x25, 0x00, 0x00, 0xfd, 0xd7, 0xff, 0xff, 0x30, 0x07, 0x00, 0x00,
		0x44, 0xc9, 0xff, 0xff, 0x06, 0xf4, 0xff, 0xff, 0xda, 0x0c, 0x00, 0x00, 0xa1, 0xee, 0xff, 0xff,
		0x85, 0xff, 0xff, 0xff, 0xaf, 0xef, 0xff, 0xff, 0xb8, 0x1a, 0x00, 0x00, 0xc8, 0xd4, 0xff, 0xff,
		0x57, 0xf6, 0xff, 0xff, 0x53, 0x0f, 0x00, 0x00, 0x64, 0xfe, 0xff, 0xff, 0x6e, 0x0d, 0x00, 0x00,
		0x1e, 0x1a, 0x00, 0x00, 0xcd, 0x2f, 0x00, 0x00, 0x9a, 0xfe, 0xff, 0xff, 0x04, 0x00, 0x00, 0x00,
		0x18, 0x00, 0x00, 0x00, 0x33, 0x05, 0x00, 0x00, 0x66, 0x0c, 0x00, 0x00, 0xeb, 0xf9, 0xff, 0xff,
		0xb2, 0xff, 0xff, 0xff, 0x48, 0xf8, 0xff, 0xff, 0xe7, 0xf1, 0xff, 0xff, 0xbe, 0xfe, 0xff, 0xff,
		0x04, 0x00, 0x00, 0x00, 0x80, 0x00, 0x00, 0x00, 0xc7, 0x7f, 0x00, 0x00, 0x2a, 0x04, 0x00, 0x00,
		0x7a, 0x56, 0x00, 0x00, 0xaf, 0xab, 0xfd, 0xff, 0xe9, 0x2e, 0xff, 0xff, 0x27, 0x30, 0x00, 0x00,
		0x3f, 0x6a, 0xfe, 0xff, 0x1b, 0x64, 0xff, 0xff, 0xf8, 0x4b, 0x00, 0x00, 0x2c, 0x21, 0xff, 0xff,
		0x05, 0xf0, 0xff, 0xff, 0x45, 0x2b, 0x00, 0x00, 0xd4, 0xc0, 0xff, 0xff, 0xea, 0xa3, 0x00, 0x00,
		0xe5, 0x47, 0x00, 0x00, 0xfd, 0xaf, 0xff, 0xff, 0x6d, 0x2c, 0x00, 0x00, 0xa3, 0xe8, 0xff, 0xff,
		0x59, 0x54, 0x00, 0x00, 0xcd, 0x4e, 0x00, 0x00, 0x62, 0xb7, 0x00, 0x00, 0xca, 0x28, 0x00, 0x00,
		0x7e, 0xf3, 0x00, 0x00, 0xfd, 0x2f, 0x00, 0x00, 0xb4, 0x92, 0x01, 0x00, 0xa3, 0x62, 0xff, 0xff,
		0xfe, 0x24, 0xff, 0xff, 0xbd, 0xb5, 0xff, 0xff, 0x08, 0xc1, 0xff, 0xff, 0x67, 0x38, 0x00, 0x00,
		0xf5, 0xa8, 0x00, 0x00, 0x7c, 0xc7, 0x00, 0x00, 0xc8, 0xf4, 0xff, 0xff, 0xcc, 0xf4, 0xff, 0xff,
		0x0f, 0x00, 0x00, 0x00, 0x4d, 0x4c, 0x49, 0x52, 0x20, 0x43, 0x6f, 0x6e, 0x76, 0x65, 0x72, 0x74,
		0x65, 0x64, 0x2e, 0x00, 0x01, 0x00, 0x00, 0x00, 0x14, 0x00, 0x00, 0x00, 0x00, 0x00, 0x0e, 0x00,
		0x18, 0x00, 0x14, 0x00, 0x10, 0x00, 0x0c, 0x00, 0x08, 0x00, 0x04, 0x00, 0x0e, 0x00, 0x00, 0x00,
		0x14, 0x00, 0x00, 0x00, 0x1c, 0x00, 0x00, 0x00, 0xb4, 0x01, 0x00, 0x00, 0xb8, 0x01, 0x00, 0x00,
		0xbc, 0x01, 0x00, 0x00, 0x04, 0x00, 0x00, 0x00, 0x6d, 0x61, 0x69, 0x6e, 0x00, 0x00, 0x00, 0x00,
		0x08, 0x00, 0x00, 0x00, 0x7c, 0x01, 0x00, 0x00, 0x38, 0x01, 0x00, 0x00, 0x04, 0x01, 0x00, 0x00,
		0xc0, 0x00, 0x00, 0x00, 0x9c, 0x00, 0x00, 0x00, 0x64, 0x00, 0x00, 0x00, 0x28, 0x00, 0x00, 0x00,
		0x04, 0x00, 0x00, 0x00, 0x1e, 0xff, 0xff, 0xff, 0x0c, 0x00, 0x00, 0x00, 0x10, 0x00, 0x00, 0x00,
		0x04, 0x00, 0x00, 0x00, 0x01, 0x00, 0x00, 0x00, 0x0e, 0x00, 0x00, 0x00, 0x01, 0x00, 0x00, 0x00,
		0x0d, 0x00, 0x00, 0x00, 0x12, 0xff, 0xff, 0xff, 0x1c, 0x00, 0x00, 0x00, 0x00, 0x00, 0x00, 0x09,
		0x1c, 0x00, 0x00, 0x00, 0x20, 0x00, 0x00, 0x00, 0x03, 0x00, 0x00, 0x00, 0x00, 0x00, 0x06, 0x00,
		0x08, 0x00, 0x04, 0x00, 0x06, 0x00, 0x00, 0x00, 0x00, 0x00, 0x80, 0x3f, 0x01, 0x00, 0x00, 0x00,
		0x0d, 0x00, 0x00, 0x00, 0x01, 0x00, 0x00, 0x00, 0x0c, 0x00, 0x00, 0x00, 0x4a, 0xff, 0xff, 0xff,
		0x14, 0x00, 0x00, 0x00, 0x00, 0x00, 0x00, 0x08, 0x10, 0x00, 0x00, 0x00, 0x14, 0x00, 0x00, 0x00,
		0x01, 0x00, 0x00, 0x00, 0xb4, 0xf5, 0xff, 0xff, 0x01, 0x00, 0x00, 0x00, 0x0c, 0x00, 0x00, 0x00,
		0x03, 0x00, 0x00, 0x00, 0x0a, 0x00, 0x00, 0x00, 0x0b, 0x00, 0x00, 0x00, 0x02, 0x00, 0x00, 0x00,
		0xaa, 0xff, 0xff, 0xff, 0x0c, 0x00, 0x00, 0x00, 0x10, 0x00, 0x00, 0x00, 0x02, 0x00, 0x00, 0x00,
		0x01, 0x00, 0x00, 0x00, 0x0a, 0x00, 0x00, 0x00, 0x01, 0x00, 0x00, 0x00, 0x09, 0x00, 0x00, 0x00,
		0x9e, 0xff, 0xff, 0xff, 0x14, 0x00, 0x00, 0x00, 0x00, 0x00, 0x00, 0x08, 0x10, 0x00, 0x00, 0x00,
		0x14, 0x00, 0x00, 0x00, 0x01, 0x00, 0x00, 0x00, 0x08, 0xf6, 0xff, 0xff, 0x01, 0x00, 0x00, 0x00,
		0x09, 0x00, 0x00, 0x00, 0x03, 0x00, 0x00, 0x00, 0x07, 0x00, 0x00, 0x00, 0x08, 0x00, 0x00, 0x00,
		0x03, 0x00, 0x00, 0x00, 0x00, 0x00, 0x0a, 0x00, 0x10, 0x00, 0x0c, 0x00, 0x08, 0x00, 0x04, 0x00,
		0x0a, 0x00, 0x00, 0x00, 0x0c, 0x00, 0x00, 0x00, 0x10, 0x00, 0x00, 0x00, 0x02, 0x00, 0x00, 0x00,
		0x01, 0x00, 0x00, 0x00, 0x07, 0x00, 0x00, 0x00, 0x01, 0x00, 0x00, 0x00, 0x06, 0x00, 0x00, 0x00,
		0x00, 0x00, 0x0e, 0x00, 0x18, 0x00, 0x14, 0x00, 0x10, 0x00, 0x0c, 0x00, 0x0b, 0x00, 0x04, 0x00,
		0x0e, 0x00, 0x00, 0x00, 0x14, 0x00, 0x00, 0x00, 0x00, 0x00, 0x00, 0x08, 0x10, 0x00, 0x00, 0x00,
		0x14, 0x00, 0x00, 0x00, 0x01, 0x00, 0x00, 0x00, 0x78, 0xf6, 0xff, 0xff, 0x01, 0x00, 0x00, 0x00,
		0x06, 0x00, 0x00, 0x00, 0x03, 0x00, 0x00, 0x00, 0x04, 0x00, 0x00, 0x00, 0x05, 0x00, 0x00, 0x00,
		0x01, 0x00, 0x00, 0x00, 0x00, 0x00, 0x0a, 0x00, 0x0c, 0x00, 0x00, 0x00, 0x08, 0x00, 0x04, 0x00,
		0x0a, 0x00, 0x00, 0x00, 0x08, 0x00, 0x00, 0x00, 0x0c, 0x00, 0x00, 0x00, 0x01, 0x00, 0x00, 0x00,
		0x04, 0x00, 0x00, 0x00, 0x01, 0x00, 0x00, 0x00, 0x00, 0x00, 0x00, 0x00, 0x01, 0x00, 0x00, 0x00,
		0x0e, 0x00, 0x00, 0x00, 0x01, 0x00, 0x00, 0x00, 0x00, 0x00, 0x00, 0x00, 0x0f, 0x00, 0x00, 0x00,
		0x08, 0x09, 0x00, 0x00, 0x64, 0x08, 0x00, 0x00, 0xcc, 0x07, 0x00, 0x00, 0x50, 0x07, 0x00, 0x00,
		0x04, 0x06, 0x00, 0x00, 0x44, 0x05, 0x00, 0x00, 0x94, 0x04, 0x00, 0x00, 0x18, 0x04, 0x00, 0x00,
		0x68, 0x03, 0x00, 0x00, 0xc0, 0x02, 0x00, 0x00, 0x3c, 0x02, 0x00, 0x00, 0x8c, 0x01, 0x00, 0x00,
		0xe4, 0x00, 0x00, 0x00, 0x60, 0x00, 0x00, 0x00, 0x04, 0x00, 0x00, 0x00, 0x4a, 0xf7, 0xff, 0xff,
		0x00, 0x00, 0x00, 0x01, 0x14, 0x00, 0x00, 0x00, 0x1c, 0x00, 0x00, 0x00, 0x1c, 0x00, 0x00, 0x00,
		0x0f, 0x00, 0x00, 0x00, 0x34, 0x00, 0x00, 0x00, 0x02, 0x00, 0x00, 0x00, 0xff, 0xff, 0xff, 0xff,
		0x06, 0x00, 0x00, 0x00, 0x34, 0xf7, 0xff, 0xff, 0x19, 0x00, 0x00, 0x00, 0x53, 0x74, 0x61, 0x74,
		0x65, 0x66, 0x75, 0x6c, 0x50, 0x61, 0x72, 0x74, 0x69, 0x74, 0x69, 0x6f, 0x6e, 0x65, 0x64, 0x43,
		0x61, 0x6c, 0x6c, 0x3a, 0x30, 0x00, 0x00, 0x00, 0x02, 0x00, 0x00, 0x00, 0x01, 0x00, 0x00, 0x00,
		0x06, 0x00, 0x00, 0x00, 0x96, 0xfa, 0xff, 0xff, 0x00, 0x00, 0x00, 0x01, 0x18, 0x00, 0x00, 0x00,
		0x20, 0x00, 0x00, 0x00, 0x3c, 0x00, 0x00, 0x00, 0x0e, 0x00, 0x00, 0x00, 0x00, 0x00, 0x00, 0x09,
		0x58, 0x00, 0x00, 0x00, 0x02, 0x00, 0x00, 0x00, 0xff, 0xff, 0xff, 0xff, 0x06, 0x00, 0x00, 0x00,
		0x3c, 0xf8, 0xff, 0xff, 0x08, 0x00, 0x00, 0x00, 0x10, 0x00, 0x00, 0x00, 0x01, 0x00, 0x00, 0x00,
		0x80, 0xff, 0xff, 0xff, 0xff, 0xff, 0xff, 0xff, 0x01, 0x00, 0x00, 0x00, 0x00, 0x00, 0x80, 0x3b,
		0x20, 0x00, 0x00, 0x00, 0x73, 0x65, 0x71, 0x75, 0x65, 0x6e, 0x74, 0x69, 0x61, 0x6c, 0x2f, 0x71,
		0x75, 0x61, 0x6e, 0x74, 0x5f, 0x64, 0x65, 0x6e, 0x73, 0x65, 0x5f, 0x32, 0x2f, 0x53, 0x6f, 0x66,
		0x74, 0x6d, 0x61, 0x78, 0x00, 0x00, 0x00, 0x00, 0x02, 0x00, 0x00, 0x00, 0x01, 0x00, 0x00, 0x00,
		0x06, 0x00, 0x00, 0x00, 0x16, 0xfb, 0xff, 0xff, 0x00, 0x00, 0x00, 0x01, 0x18, 0x00, 0x00, 0x00,
		0x20, 0x00, 0x00, 0x00, 0x40, 0x00, 0x00, 0x00, 0x0d, 0x00, 0x00, 0x00, 0x00, 0x00, 0x00, 0x09,
		0x7c, 0x00, 0x00, 0x00, 0x02, 0x00, 0x00, 0x00, 0xff, 0xff, 0xff, 0xff, 0x06, 0x00, 0x00, 0x00,
		0xbc, 0xf8, 0xff, 0xff, 0x08, 0x00, 0x00, 0x00, 0x14, 0x00, 0x00, 0x00, 0x01, 0x00, 0x00, 0x00,
		0x17, 0x00, 0x00, 0x00, 0x00, 0x00, 0x00, 0x00, 0x00, 0x00, 0x00, 0x00, 0x01, 0x00, 0x00, 0x00,
		0x9a, 0xa6, 0x51, 0x3e, 0x40, 0x00, 0x00, 0x00, 0x73, 0x65, 0x71, 0x75, 0x65, 0x6e, 0x74, 0x69,
		0x61, 0x6c, 0x2f, 0x71, 0x75, 0x61, 0x6e, 0x74, 0x5f, 0x64, 0x65, 0x6e, 0x73, 0x65, 0x5f, 0x32,
		0x2f, 0x4d, 0x61, 0x74, 0x4d, 0x75, 0x6c, 0x3b, 0x73, 0x65, 0x71, 0x75, 0x65, 0x6e, 0x74, 0x69,
		0x61, 0x6c, 0x2f, 0x71, 0x75, 0x61, 0x6e, 0x74, 0x5f, 0x64, 0x65, 0x6e, 0x73, 0x65, 0x5f, 0x32,
		0x2f, 0x42, 0x69, 0x61, 0x73, 0x41, 0x64, 0x64, 0x00, 0x00, 0x00, 0x00, 0x02, 0x00, 0x00, 0x00,
		0x01, 0x00, 0x00, 0x00, 0x06, 0x00, 0x00, 0x00, 0x6e, 0xfc, 0xff, 0xff, 0x14, 0x00, 0x00, 0x00,
		0x34, 0x00, 0x00, 0x00, 0x0c, 0x00, 0x00, 0x00, 0x00, 0x00, 0x00, 0x09, 0x8c, 0x00, 0x00, 0x00,
		0x4c, 0xf9, 0xff, 0xff, 0x08, 0x00, 0x00, 0x00, 0x14, 0x00, 0x00, 0x00, 0x01, 0x00, 0x00, 0x00,
		0x00, 0x00, 0x00, 0x00, 0x00, 0x00, 0x00, 0x00, 0x00, 0x00, 0x00, 0x00, 0x01, 0x00, 0x00, 0x00,
		0xe6, 0x30, 0xe3, 0x3c, 0x5f, 0x00, 0x00, 0x00, 0x73, 0x65, 0x71, 0x75, 0x65, 0x6e, 0x74, 0x69,
		0x61, 0x6c, 0x2f, 0x71, 0x75, 0x61, 0x6e, 0x74, 0x5f, 0x64, 0x65, 0x6e, 0x73, 0x65, 0x5f, 0x32,
		0x2f, 0x4d, 0x61, 0x74, 0x4d, 0x75, 0x6c, 0x3b, 0x73, 0x65, 0x71, 0x75, 0x65, 0x6e, 0x74, 0x69,
		0x61, 0x6c, 0x2f, 0x71, 0x75, 0x61, 0x6e, 0x74, 0x5f, 0x64, 0x65, 0x6e, 0x73, 0x65, 0x5f, 0x32,
		0x2f, 0x4c, 0x61, 0x73, 0x74, 0x56, 0x61, 0x6c, 0x75, 0x65, 0x51, 0x75, 0x61, 0x6e, 0x74, 0x2f,
		0x46, 0x61, 0x6b, 0x65, 0x51, 0x75, 0x61, 0x6e, 0x74, 0x57, 0x69, 0x74, 0x68, 0x4d, 0x69, 0x6e,
		0x4d, 0x61, 0x78, 0x56, 0x61, 0x72, 0x73, 0x00, 0x02, 0x00, 0x00, 0x00, 0x06, 0x00, 0x00, 0x00,
		0x20, 0x00, 0x00, 0x00, 0x66, 0xfc, 0xff, 0xff, 0x00, 0x00, 0x00, 0x01, 0x18, 0x00, 0x00, 0x00,
		0x20, 0x00, 0x00, 0x00, 0x40, 0x00, 0x00, 0x00, 0x0b, 0x00, 0x00, 0x00, 0x00, 0x00, 0x00, 0x09,
		0x58, 0x00, 0x00, 0x00, 0x02, 0x00, 0x00, 0x00, 0xff, 0xff, 0xff, 0xff, 0x20, 0x00, 0x00, 0x00,
		0x0c, 0xfa, 0xff, 0xff, 0x08, 0x00, 0x00, 0x00, 0x14, 0x00, 0x00, 0x00, 0x01, 0x00, 0x00, 0x00,
		0x00, 0x00, 0x00, 0x00, 0x00, 0x00, 0x00, 0x00, 0x00, 0x00, 0x00, 0x00, 0x01, 0x00, 0x00, 0x00,
		0x00, 0x00, 0x00, 0x3c, 0x1d, 0x00, 0x00, 0x00, 0x73, 0x65, 0x71, 0x75, 0x65, 0x6e, 0x74, 0x69,
		0x61, 0x6c, 0x2f, 0x71, 0x75, 0x61, 0x6e, 0x74, 0x5f, 0x64, 0x65, 0x6e, 0x73, 0x65, 0x5f, 0x31,
		0x2f, 0x54, 0x61, 0x6e, 0x68, 0x00, 0x00, 0x00, 0x02, 0x00, 0x00, 0x00, 0x01, 0x00, 0x00, 0x00,
		0x20, 0x00, 0x00, 0x00, 0xe6, 0xfc, 0xff, 0xff, 0x00, 0x00, 0x00, 0x01, 0x18, 0x00, 0x00, 0x00,
		0x20, 0x00, 0x00, 0x00, 0x40, 0x00, 0x00, 0x00, 0x0a, 0x00, 0x00, 0x00, 0x00, 0x00, 0x00, 0x09,
		0x7c, 0x00, 0x00, 0x00, 0x02, 0x00, 0x00, 0x00, 0xff, 0xff, 0xff, 0xff, 0x20, 0x00, 0x00, 0x00,
		0x8c, 0xfa, 0xff, 0xff, 0x08, 0x00, 0x00, 0x00, 0x14, 0x00, 0x00, 0x00, 0x01, 0x00, 0x00, 0x00,
		0xf9, 0xff, 0xff, 0xff, 0xff, 0xff, 0xff, 0xff, 0x00, 0x00, 0x00, 0x00, 0x01, 0x00, 0x00, 0x00,
		0xf8, 0x6d, 0x2e, 0x3d, 0x40, 0x00, 0x00, 0x00, 0x73, 0x65, 0x71, 0x75, 0x65, 0x6e, 0x74, 0x69,
		0x61, 0x6c, 0x2f, 0x71, 0x75, 0x61, 0x6e, 0x74, 0x5f, 0x64, 0x65, 0x6e, 0x73, 0x65, 0x5f, 0x31,
		0x2f, 0x4d, 0x61, 0x74, 0x4d, 0x75, 0x6c, 0x3b, 0x73, 0x65, 0x71, 0x75, 0x65, 0x6e, 0x74, 0x69,
		0x61, 0x6c, 0x2f, 0x71, 0x75, 0x61, 0x6e, 0x74, 0x5f, 0x64, 0x65, 0x6e, 0x73, 0x65, 0x5f, 0x31,
		0x2f, 0x42, 0x69, 0x61, 0x73, 0x41, 0x64, 0x64, 0x00, 0x00, 0x00, 0x00, 0x02, 0x00, 0x00, 0x00,
		0x01, 0x00, 0x00, 0x00, 0x20, 0x00, 0x00, 0x00, 0x3e, 0xfe, 0xff, 0xff, 0x14, 0x00, 0x00, 0x00,
		0x34, 0x00, 0x00, 0x00, 0x09, 0x00, 0x00, 0x00, 0x00, 0x00, 0x00, 0x09, 0x8c, 0x00, 0x00, 0x00,
		0x1c, 0xfb, 0xff, 0xff, 0x08, 0x00, 0x00, 0x00, 0x14, 0x00, 0x00, 0x00, 0x01, 0x00, 0x00, 0x00,
		0x00, 0x00, 0x00, 0x00, 0x00, 0x00, 0x00, 0x00, 0x00, 0x00, 0x00, 0x00, 0x01, 0x00, 0x00, 0x00,
		0x62, 0xea, 0x21, 0x3c, 0x5f, 0x00, 0x00, 0x00, 0x73, 0x65, 0x71, 0x75, 0x65, 0x6e, 0x74, 0x69,
		0x61, 0x6c, 0x2f, 0x71, 0x75, 0x61, 0x6e, 0x74, 0x5f, 0x64, 0x65, 0x6e, 0x73, 0x65, 0x5f, 0x31,
		0x2f, 0x4d, 0x61, 0x74, 0x4d, 0x75, 0x6c, 0x3b, 0x73, 0x65, 0x71, 0x75, 0x65, 0x6e, 0x74, 0x69,
		0x61, 0x6c, 0x2f, 0x71, 0x75, 0x61, 0x6e, 0x74, 0x5f, 0x64, 0x65, 0x6e, 0x73, 0x65, 0x5f, 0x31,
		0x2f, 0x4c, 0x61, 0x73, 0x74, 0x56, 0x61, 0x6c, 0x75, 0x65, 0x51, 0x75, 0x61, 0x6e, 0x74, 0x2f,
		0x46, 0x61, 0x6b, 0x65, 0x51, 0x75, 0x61, 0x6e, 0x74, 0x57, 0x69, 0x74, 0x68, 0x4d, 0x69, 0x6e,
		0x4d, 0x61, 0x78, 0x56, 0x61, 0x72, 0x73, 0x00, 0x02, 0x00, 0x00, 0x00, 0x20, 0x00, 0x00, 0x00,
		0x20, 0x00, 0x00, 0x00, 0x36, 0xfe, 0xff, 0xff, 0x00, 0x00, 0x00, 0x01, 0x18, 0x00, 0x00, 0x00,
		0x20, 0x00, 0x00, 0x00, 0x3c, 0x00, 0x00, 0x00, 0x08, 0x00, 0x00, 0x00, 0x00, 0x00, 0x00, 0x09,
		0x50, 0x00, 0x00, 0x00, 0x02, 0x00, 0x00, 0x00, 0xff, 0xff, 0xff, 0xff, 0x20, 0x00, 0x00, 0x00,
		0xdc, 0xfb, 0xff, 0xff, 0x08, 0x00, 0x00, 0x00, 0x10, 0x00, 0x00, 0x00, 0x01, 0x00, 0x00, 0x00,
		0x00, 0x00, 0x00, 0x00, 0x00, 0x00, 0x00, 0x00, 0x01, 0x00, 0x00, 0x00, 0x00, 0x00, 0x00, 0x3c,
		0x1b, 0x00, 0x00, 0x00, 0x73, 0x65, 0x71, 0x75, 0x65, 0x6e, 0x74, 0x69, 0x61, 0x6c, 0x2f, 0x71,
		0x75, 0x61, 0x6e, 0x74, 0x5f, 0x64, 0x65, 0x6e, 0x73, 0x65, 0x2f, 0x54, 0x61, 0x6e, 0x68, 0x00,
		0x02, 0x00, 0x00, 0x00, 0x01, 0x00, 0x00, 0x00, 0x20, 0x00, 0x00, 0x00, 0xae, 0xfe, 0xff, 0xff,
		0x00, 0x00, 0x00, 0x01, 0x18, 0x00, 0x00, 0x00, 0x20, 0x00, 0x00, 0x00, 0x3c, 0x00, 0x00, 0x00,
		0x07, 0x00, 0x00, 0x00, 0x00, 0x00, 0x00, 0x09, 0x74, 0x00, 0x00, 0x00, 0x02, 0x00, 0x00, 0x00,
		0xff, 0xff, 0xff, 0xff, 0x20, 0x00, 0x00, 0x00, 0x54, 0xfc, 0xff, 0xff, 0x08, 0x00, 0x00, 0x00,
		0x10, 0x00, 0x00, 0x00, 0x01, 0x00, 0x00, 0x00, 0x02, 0x00, 0x00, 0x00, 0x00, 0x00, 0x00, 0x00,
		0x01, 0x00, 0x00, 0x00, 0x3a, 0xd2, 0x58, 0x3d, 0x3c, 0x00, 0x00, 0x00, 0x73, 0x65, 0x71, 0x75,
		0x65, 0x6e, 0x74, 0x69, 0x61, 0x6c, 0x2f, 0x71, 0x75, 0x61, 0x6e, 0x74, 0x5f, 0x64, 0x65, 0x6e,
		0x73, 0x65, 0x2f, 0x4d, 0x61, 0x74, 0x4d, 0x75, 0x6c, 0x3b, 0x73, 0x65, 0x71, 0x75, 0x65, 0x6e,
		0x74, 0x69, 0x61, 0x6c, 0x2f, 0x71, 0x75, 0x61, 0x6e, 0x74, 0x5f, 0x64, 0x65, 0x6e, 0x73, 0x65,
		0x2f, 0x42, 0x69, 0x61, 0x73, 0x41, 0x64, 0x64, 0x00, 0x00, 0x00, 0x00, 0x02, 0x00, 0x00, 0x00,
		0x01, 0x00, 0x00, 0x00, 0x20, 0x00, 0x00, 0x00, 0x00, 0x00, 0x0e, 0x00, 0x18, 0x00, 0x14, 0x00,
		0x13, 0x00, 0x0c, 0x00, 0x08, 0x00, 0x04, 0x00, 0x0e, 0x00, 0x00, 0x00, 0x14, 0x00, 0x00, 0x00,
		0x30, 0x00, 0x00, 0x00, 0x06, 0x00, 0x00, 0x00, 0x00, 0x00, 0x00, 0x09, 0x84, 0x00, 0x00, 0x00,
		0xec, 0xfc, 0xff, 0xff, 0x08, 0x00, 0x00, 0x00, 0x10, 0x00, 0x00, 0x00, 0x01, 0x00, 0x00, 0x00,
		0x00, 0x00, 0x00, 0x00, 0x00, 0x00, 0x00, 0x00, 0x01, 0x00, 0x00, 0x00, 0x19, 0x34, 0xde, 0x3b,
		0x5b, 0x00, 0x00, 0x00, 0x73, 0x65, 0x71, 0x75, 0x65, 0x6e, 0x74, 0x69, 0x61, 0x6c, 0x2f, 0x71,
		0x75, 0x61, 0x6e, 0x74, 0x5f, 0x64, 0x65, 0x6e, 0x73, 0x65, 0x2f, 0x4d, 0x61, 0x74, 0x4d, 0x75,
		0x6c, 0x3b, 0x73, 0x65, 0x71, 0x75, 0x65, 0x6e, 0x74, 0x69, 0x61, 0x6c, 0x2f, 0x71, 0x75, 0x61,
		0x6e, 0x74, 0x5f, 0x64, 0x65, 0x6e, 0x73, 0x65, 0x2f, 0x4c, 0x61, 0x73, 0x74, 0x56, 0x61, 0x6c,
		0x75, 0x65, 0x51, 0x75, 0x61, 0x6e, 0x74, 0x2f, 0x46, 0x61, 0x6b, 0x65, 0x51, 0x75, 0x61, 0x6e,
		0x74, 0x57, 0x69, 0x74, 0x68, 0x4d, 0x69, 0x6e, 0x4d, 0x61, 0x78, 0x56, 0x61, 0x72, 0x73, 0x00,
		0x02, 0x00, 0x00, 0x00, 0x20, 0x00, 0x00, 0x00, 0x64, 0x00, 0x00, 0x00, 0x00, 0x00, 0x16, 0x00,
		0x20, 0x00, 0x1c, 0x00, 0x1b, 0x00, 0x14, 0x00, 0x10, 0x00, 0x0c, 0x00, 0x00, 0x00, 0x00, 0x00,
		0x08, 0x00, 0x07, 0x00, 0x16, 0x00, 0x00, 0x00, 0x00, 0x00, 0x00, 0x01, 0x18, 0x00, 0x00, 0x00,
		0x20, 0x00, 0x00, 0x00, 0x3c, 0x00, 0x00, 0x00, 0x05, 0x00, 0x00, 0x00, 0x00, 0x00, 0x00, 0x09,
		0x20, 0x01, 0x00, 0x00, 0x02, 0x00, 0x00, 0x00, 0xff, 0xff, 0xff, 0xff, 0x64, 0x00, 0x00, 0x00,
		0xbc, 0xfd, 0xff, 0xff, 0x08, 0x00, 0x00, 0x00, 0x10, 0x00, 0x00, 0x00, 0x01, 0x00, 0x00, 0x00,
		0x80, 0xff, 0xff, 0xff, 0xff, 0xff, 0xff, 0xff, 0x01, 0x00, 0x00, 0x00, 0x81, 0x80, 0x80, 0x3b,
		0xeb, 0x00, 0x00, 0x00, 0x73, 0x65, 0x71, 0x75, 0x65, 0x6e, 0x74, 0x69, 0x61, 0x6c, 0x2f, 0x71,
		0x75, 0x61, 0x6e, 0x74, 0x69, 0x7a, 0x65, 0x5f, 0x6c, 0x61, 0x79, 0x65, 0x72, 0x2f, 0x41, 0x6c,
		0x6c, 0x56, 0x61, 0x6c, 0x75, 0x65, 0x73, 0x51, 0x75, 0x61, 0x6e, 0x74, 0x69, 0x7a, 0x65, 0x2f,
		0x46, 0x61, 0x6b, 0x65, 0x51, 0x75, 0x61, 0x6e, 0x74, 0x57, 0x69, 0x74, 0x68, 0x4d, 0x69, 0x6e,
		0x4d, 0x61, 0x78, 0x56, 0x61, 0x72, 0x73, 0x3b, 0x73, 0x65, 0x71, 0x75, 0x65, 0x6e, 0x74, 0x69,
		0x61, 0x6c, 0x2f, 0x71, 0x75, 0x61, 0x6e, 0x74, 0x69, 0x7a, 0x65, 0x5f, 0x6c, 0x61, 0x79, 0x65,
		0x72, 0x2f, 0x41, 0x6c, 0x6c, 0x56, 0x61, 0x6c, 0x75, 0x65, 0x73, 0x51, 0x75, 0x61, 0x6e, 0x74,
		0x69, 0x7a, 0x65, 0x2f, 0x46, 0x61, 0x6b, 0x65, 0x51, 0x75, 0x61, 0x6e, 0x74, 0x57, 0x69, 0x74,
		0x68, 0x4d, 0x69, 0x6e, 0x4d, 0x61, 0x78, 0x56, 0x61, 0x72, 0x73, 0x2f, 0x52, 0x65, 0x61, 0x64,
		0x56, 0x61, 0x72, 0x69, 0x61, 0x62, 0x6c, 0x65, 0x4f, 0x70, 0x3b, 0x73, 0x65, 0x71, 0x75, 0x65,
		0x6e, 0x74, 0x69, 0x61, 0x6c, 0x2f, 0x71, 0x75, 0x61, 0x6e, 0x74, 0x69, 0x7a, 0x65, 0x5f, 0x6c,
		0x61, 0x79, 0x65, 0x72, 0x2f, 0x41, 0x6c, 0x6c, 0x56, 0x61, 0x6c, 0x75, 0x65, 0x73, 0x51, 0x75,
		0x61, 0x6e, 0x74, 0x69, 0x7a, 0x65, 0x2f, 0x46, 0x61, 0x6b, 0x65, 0x51, 0x75, 0x61, 0x6e, 0x74,
		0x57, 0x69, 0x74, 0x68, 0x4d, 0x69, 0x6e, 0x4d, 0x61, 0x78, 0x56, 0x61, 0x72, 0x73, 0x2f, 0x52,
		0x65, 0x61, 0x64, 0x56, 0x61, 0x72, 0x69, 0x61, 0x62, 0x6c, 0x65, 0x4f, 0x70, 0x5f, 0x31, 0x00,
		0x02, 0x00, 0x00, 0x00, 0x01, 0x00, 0x00, 0x00, 0x64, 0x00, 0x00, 0x00, 0x0a, 0xff, 0xff, 0xff,
		0x00, 0x00, 0x00, 0x01, 0x14, 0x00, 0x00, 0x00, 0x30, 0x00, 0x00, 0x00, 0x04, 0x00, 0x00, 0x00,
		0x00, 0x00, 0x00, 0x02, 0x58, 0x00, 0x00, 0x00, 0xf4, 0xfe, 0xff, 0xff, 0x08, 0x00, 0x00, 0x00,
		0x10, 0x00, 0x00, 0x00, 0x01, 0x00, 0x00, 0x00, 0x00, 0x00, 0x00, 0x00, 0x00, 0x00, 0x00, 0x00,
		0x01, 0x00, 0x00, 0x00, 0x62, 0xea, 0xa1, 0x38, 0x2f, 0x00, 0x00, 0x00, 0x73, 0x65, 0x71, 0x75,
		0x65, 0x6e, 0x74, 0x69, 0x61, 0x6c, 0x2f, 0x71, 0x75, 0x61, 0x6e, 0x74, 0x5f, 0x64, 0x65, 0x6e,
		0x73, 0x65, 0x5f, 0x31, 0x2f, 0x42, 0x69, 0x61, 0x73, 0x41, 0x64, 0x64, 0x2f, 0x52, 0x65, 0x61,
		0x64, 0x56, 0x61, 0x72, 0x69, 0x61, 0x62, 0x6c, 0x65, 0x4f, 0x70, 0x00, 0x01, 0x00, 0x00, 0x00,
		0x20, 0x00, 0x00, 0x00, 0x82, 0xff, 0xff, 0xff, 0x00, 0x00, 0x00, 0x01, 0x14, 0x00, 0x00, 0x00,
		0x34, 0x00, 0x00, 0x00, 0x03, 0x00, 0x00, 0x00, 0x00, 0x00, 0x00, 0x02, 0x5c, 0x00, 0x00, 0x00,
		0x6c, 0xff, 0xff, 0xff, 0x08, 0x00, 0x00, 0x00, 0x14, 0x00, 0x00, 0x00, 0x01, 0x00, 0x00, 0x00,
		0x00, 0x00, 0x00, 0x00, 0x00, 0x00, 0x00, 0x00, 0x00, 0x00, 0x00, 0x00, 0x01, 0x00, 0x00, 0x00,
		0xe6, 0x30, 0x63, 0x39, 0x2f, 0x00, 0x00, 0x00, 0x73, 0x65, 0x71, 0x75, 0x65, 0x6e, 0x74, 0x69,
		0x61, 0x6c, 0x2f, 0x71, 0x75, 0x61, 0x6e, 0x74, 0x5f, 0x64, 0x65, 0x6e, 0x73, 0x65, 0x5f, 0x32,
		0x2f, 0x42, 0x69, 0x61, 0x73, 0x41, 0x64, 0x64, 0x2f, 0x52, 0x65, 0x61, 0x64, 0x56, 0x61, 0x72,
		0x69, 0x61, 0x62, 0x6c, 0x65, 0x4f, 0x70, 0x00, 0x01, 0x00, 0x00, 0x00, 0x06, 0x00, 0x00, 0x00,
		0x00, 0x00, 0x16, 0x00, 0x1c, 0x00, 0x18, 0x00, 0x17, 0x00, 0x10, 0x00, 0x0c, 0x00, 0x08, 0x00,
		0x00, 0x00, 0x00, 0x00, 0x00, 0x00, 0x07, 0x00, 0x16, 0x00, 0x00, 0x00, 0x00, 0x00, 0x00, 0x01,
		0x20, 0x00, 0x00, 0x00, 0x40, 0x00, 0x00, 0x00, 0x02, 0x00, 0x00, 0x00, 0x00, 0x00, 0x00, 0x02,
		0x68, 0x00, 0x00, 0x00, 0x0c, 0x00, 0x0c, 0x00, 0x00, 0x00, 0x00, 0x00, 0x08, 0x00, 0x04, 0x00,
		0x0c, 0x00, 0x00, 0x00, 0x08, 0x00, 0x00, 0x00, 0x14, 0x00, 0x00, 0x00, 0x01, 0x00, 0x00, 0x00,
		0x00, 0x00, 0x00, 0x00, 0x00, 0x00, 0x00, 0x00, 0x00, 0x00, 0x00, 0x00, 0x01, 0x00, 0x00, 0x00,
		0x2c, 0x13, 0xdf, 0x37, 0x2d, 0x00, 0x00, 0x00, 0x73, 0x65, 0x71, 0x75, 0x65, 0x6e, 0x74, 0x69,
		0x61, 0x6c, 0x2f, 0x71, 0x75, 0x61, 0x6e, 0x74, 0x5f, 0x64, 0x65, 0x6e, 0x73, 0x65, 0x2f, 0x42,
		0x69, 0x61, 0x73, 0x41, 0x64, 0x64, 0x2f, 0x52, 0x65, 0x61, 0x64, 0x56, 0x61, 0x72, 0x69, 0x61,
		0x62, 0x6c, 0x65, 0x4f, 0x70, 0x00, 0x00, 0x00, 0x01, 0x00, 0x00, 0x00, 0x20, 0x00, 0x00, 0x00,
		0x00, 0x00, 0x16, 0x00, 0x1c, 0x00, 0x18, 0x00, 0x00, 0x00, 0x14, 0x00, 0x10, 0x00, 0x0c, 0x00,
		0x00, 0x00, 0x00, 0x00, 0x08, 0x00, 0x07, 0x00, 0x16, 0x00, 0x00, 0x00, 0x00, 0x00, 0x00, 0x01,
		0x14, 0x00, 0x00, 0x00, 0x20, 0x00, 0x00, 0x00, 0x20, 0x00, 0x00, 0x00, 0x01, 0x00, 0x00, 0x00,
		0x38, 0x00, 0x00, 0x00, 0x02, 0x00, 0x00, 0x00, 0xff, 0xff, 0xff, 0xff, 0x64, 0x00, 0x00, 0x00,
		0x04, 0x00, 0x04, 0x00, 0x04, 0x00, 0x00, 0x00, 0x19, 0x00, 0x00, 0x00, 0x73, 0x65, 0x72, 0x76,
		0x69, 0x6e, 0x67, 0x5f, 0x64, 0x65, 0x66, 0x61, 0x75, 0x6c, 0x74, 0x5f, 0x69, 0x6e, 0x70, 0x75,
		0x74, 0x5f, 0x31, 0x3a, 0x30, 0x00, 0x00, 0x00, 0x02, 0x00, 0x00, 0x00, 0x01, 0x00, 0x00, 0x00,
		0x64, 0x00, 0x00, 0x00, 0x05, 0x00, 0x00, 0x00, 0x6c, 0x00, 0x00, 0x00, 0x4c, 0x00, 0x00, 0x00,
		0x2c, 0x00, 0x00, 0x00, 0x18, 0x00, 0x00, 0x00, 0x04, 0x00, 0x00, 0x00, 0xd0, 0xff, 0xff, 0xff,
		0x06, 0x00, 0x00, 0x00, 0x02, 0x00, 0x00, 0x00, 0x00, 0x00, 0x00, 0x06, 0xe0, 0xff, 0xff, 0xff,
		0x19, 0x00, 0x00, 0x00, 0x02, 0x00, 0x00, 0x00, 0x00, 0x00, 0x00, 0x19, 0xf0, 0xff, 0xff, 0xff,
		0x1c, 0x00, 0x00, 0x00, 0x02, 0x00, 0x00, 0x00, 0x00, 0x00, 0x00, 0x1c, 0x0c, 0x00, 0x10, 0x00,
		0x0f, 0x00, 0x00, 0x00, 0x08, 0x00, 0x04, 0x00, 0x0c, 0x00, 0x00, 0x00, 0x09, 0x00, 0x00, 0x00,
		0x04, 0x00, 0x00, 0x00, 0x00, 0x00, 0x00, 0x09, 0x0c, 0x00, 0x0c, 0x00, 0x0b, 0x00, 0x00, 0x00,
		0x00, 0x00, 0x04, 0x00, 0x0c, 0x00, 0x00, 0x00, 0x72, 0x00, 0x00, 0x00, 0x00, 0x00, 0x00, 0x72
};

const uint32_t modelLen = sizeof(model);

}
