#include "tflite_model.h"

namespace TFLiteModel {

const unsigned char model[] = {
		0x20, 0x00, 0x00, 0x00, 0x54, 0x46, 0x4c, 0x33, 0x00, 0x00, 0x00, 0x00, 0x14, 0x00, 0x20, 0x00,
		  0x1c, 0x00, 0x18, 0x00, 0x14, 0x00, 0x10, 0x00, 0x0c, 0x00, 0x00, 0x00, 0x08, 0x00, 0x04, 0x00,
		  0x14, 0x00, 0x00, 0x00, 0x1c, 0x00, 0x00, 0x00, 0x88, 0x00, 0x00, 0x00, 0xe0, 0x00, 0x00, 0x00,
		  0x70, 0x14, 0x00, 0x00, 0x80, 0x14, 0x00, 0x00, 0xd4, 0x1f, 0x00, 0x00, 0x03, 0x00, 0x00, 0x00,
		  0x01, 0x00, 0x00, 0x00, 0x04, 0x00, 0x00, 0x00, 0x52, 0xea, 0xff, 0xff, 0x0c, 0x00, 0x00, 0x00,
		  0x1c, 0x00, 0x00, 0x00, 0x40, 0x00, 0x00, 0x00, 0x0f, 0x00, 0x00, 0x00, 0x73, 0x65, 0x72, 0x76,
		  0x69, 0x6e, 0x67, 0x5f, 0x64, 0x65, 0x66, 0x61, 0x75, 0x6c, 0x74, 0x00, 0x01, 0x00, 0x00, 0x00,
		  0x04, 0x00, 0x00, 0x00, 0x94, 0xff, 0xff, 0xff, 0x0e, 0x00, 0x00, 0x00, 0x04, 0x00, 0x00, 0x00,
		  0x0d, 0x00, 0x00, 0x00, 0x71, 0x75, 0x61, 0x6e, 0x74, 0x5f, 0x64, 0x65, 0x6e, 0x73, 0x65, 0x5f,
		  0x32, 0x00, 0x00, 0x00, 0x01, 0x00, 0x00, 0x00, 0x04, 0x00, 0x00, 0x00, 0x4e, 0xeb, 0xff, 0xff,
		  0x04, 0x00, 0x00, 0x00, 0x07, 0x00, 0x00, 0x00, 0x69, 0x6e, 0x70, 0x75, 0x74, 0x5f, 0x31, 0x00,
		  0x02, 0x00, 0x00, 0x00, 0x34, 0x00, 0x00, 0x00, 0x04, 0x00, 0x00, 0x00, 0xdc, 0xff, 0xff, 0xff,
		  0x11, 0x00, 0x00, 0x00, 0x04, 0x00, 0x00, 0x00, 0x13, 0x00, 0x00, 0x00, 0x43, 0x4f, 0x4e, 0x56,
		  0x45, 0x52, 0x53, 0x49, 0x4f, 0x4e, 0x5f, 0x4d, 0x45, 0x54, 0x41, 0x44, 0x41, 0x54, 0x41, 0x00,
		  0x08, 0x00, 0x0c, 0x00, 0x08, 0x00, 0x04, 0x00, 0x08, 0x00, 0x00, 0x00, 0x10, 0x00, 0x00, 0x00,
		  0x04, 0x00, 0x00, 0x00, 0x13, 0x00, 0x00, 0x00, 0x6d, 0x69, 0x6e, 0x5f, 0x72, 0x75, 0x6e, 0x74,
		  0x69, 0x6d, 0x65, 0x5f, 0x76, 0x65, 0x72, 0x73, 0x69, 0x6f, 0x6e, 0x00, 0x12, 0x00, 0x00, 0x00,
		  0x8c, 0x13, 0x00, 0x00, 0x84, 0x13, 0x00, 0x00, 0xf4, 0x12, 0x00, 0x00, 0xcc, 0x12, 0x00, 0x00,
		  0x3c, 0x12, 0x00, 0x00, 0x34, 0x12, 0x00, 0x00, 0xa4, 0x05, 0x00, 0x00, 0x9c, 0x05, 0x00, 0x00,
		  0x94, 0x05, 0x00, 0x00, 0x84, 0x01, 0x00, 0x00, 0x7c, 0x01, 0x00, 0x00, 0x74, 0x01, 0x00, 0x00,
		  0xa4, 0x00, 0x00, 0x00, 0x9c, 0x00, 0x00, 0x00, 0x94, 0x00, 0x00, 0x00, 0x8c, 0x00, 0x00, 0x00,
		  0x6c, 0x00, 0x00, 0x00, 0x04, 0x00, 0x00, 0x00, 0x0a, 0xec, 0xff, 0xff, 0x04, 0x00, 0x00, 0x00,
		  0x58, 0x00, 0x00, 0x00, 0x0c, 0x00, 0x00, 0x00, 0x08, 0x00, 0x0e, 0x00, 0x08, 0x00, 0x04, 0x00,
		  0x08, 0x00, 0x00, 0x00, 0x10, 0x00, 0x00, 0x00, 0x28, 0x00, 0x00, 0x00, 0x00, 0x00, 0x06, 0x00,
		  0x08, 0x00, 0x04, 0x00, 0x06, 0x00, 0x00, 0x00, 0x04, 0x00, 0x00, 0x00, 0x01, 0x00, 0x00, 0x00,
		  0xd0, 0x07, 0x00, 0x00, 0x00, 0x00, 0x0a, 0x00, 0x10, 0x00, 0x0c, 0x00, 0x08, 0x00, 0x04, 0x00,
		  0x0a, 0x00, 0x00, 0x00, 0x02, 0x00, 0x00, 0x00, 0x02, 0x00, 0x00, 0x00, 0x04, 0x00, 0x00, 0x00,
		  0x06, 0x00, 0x00, 0x00, 0x32, 0x2e, 0x31, 0x35, 0x2e, 0x30, 0x00, 0x00, 0x6e, 0xec, 0xff, 0xff,
		  0x04, 0x00, 0x00, 0x00, 0x10, 0x00, 0x00, 0x00, 0x31, 0x2e, 0x31, 0x34, 0x2e, 0x30, 0x00, 0x00,
		  0x00, 0x00, 0x00, 0x00, 0x00, 0x00, 0x00, 0x00, 0x00, 0xe2, 0xff, 0xff, 0x04, 0xe2, 0xff, 0xff,
		  0x08, 0xe2, 0xff, 0xff, 0x96, 0xec, 0xff, 0xff, 0x04, 0x00, 0x00, 0x00, 0xc0, 0x00, 0x00, 0x00,
		  0xef, 0xeb, 0x05, 0x0a, 0x0e, 0x1d, 0x1b, 0xff, 0xea, 0x2c, 0x16, 0xee, 0xf7, 0xfb, 0x06, 0xfe,
		  0x11, 0xe4, 0xf3, 0xf1, 0xc5, 0xf7, 0xff, 0x01, 0x06, 0xdf, 0xe8, 0xe9, 0xc9, 0xff, 0x22, 0xc9,
		  0xe1, 0xdb, 0x0f, 0x29, 0x33, 0x36, 0x1f, 0xff, 0xe8, 0x22, 0x29, 0xd7, 0x00, 0xfa, 0x06, 0x1f,
		  0x32, 0xae, 0x09, 0xd9, 0xdc, 0xfd, 0x27, 0x0e, 0x11, 0x81, 0xab, 0xec, 0x98, 0x4e, 0x34, 0x86,
		  0xef, 0xf2, 0xef, 0xf9, 0xf7, 0xfe, 0x1d, 0xfb, 0xf5, 0x04, 0x08, 0xf6, 0xfa, 0xf3, 0x00, 0xf4,
		  0xfd, 0x00, 0xf2, 0xf4, 0xd3, 0xfd, 0xf6, 0xf1, 0xf7, 0x05, 0x00, 0xe5, 0xf6, 0xd5, 0x0c, 0x0c,
		  0xea, 0xf5, 0x04, 0xe7, 0xe1, 0xeb, 0x0e, 0xf4, 0xf1, 0xc0, 0xdd, 0xef, 0x01, 0xf8, 0x07, 0xf6,
		  0xeb, 0x09, 0xfb, 0xf9, 0x1f, 0xec, 0xf2, 0xf9, 0xfb, 0x12, 0xfb, 0xf1, 0x28, 0xf5, 0xe3, 0x16,
		  0xf9, 0x01, 0xe0, 0xdc, 0xdc, 0xc8, 0xa8, 0x02, 0xf6, 0x00, 0xce, 0xff, 0xe1, 0xf1, 0xe6, 0xe9,
		  0xd4, 0x12, 0xec, 0xf8, 0xed, 0xe4, 0xee, 0xdb, 0xec, 0x23, 0x14, 0x39, 0x1e, 0xe8, 0xba, 0x1f,
		  0x02, 0xeb, 0xdb, 0xe0, 0xd7, 0xe1, 0xa9, 0xfc, 0xef, 0xa1, 0xc4, 0xf4, 0xea, 0xe7, 0xeb, 0xe1,
		  0xe4, 0x13, 0xef, 0xfd, 0x55, 0x05, 0xe7, 0xd7, 0x00, 0x2d, 0x20, 0xc8, 0x34, 0xc6, 0xbd, 0x34,
		  0xd8, 0xe2, 0xff, 0xff, 0xdc, 0xe2, 0xff, 0xff, 0x6a, 0xed, 0xff, 0xff, 0x04, 0x00, 0x00, 0x00,
		  0x00, 0x04, 0x00, 0x00, 0x16, 0x0b, 0x07, 0xf2, 0xf6, 0x06, 0x05, 0x00, 0x17, 0xf9, 0x01, 0x0e,
		  0x0f, 0x0e, 0xf3, 0x0a, 0x00, 0x01, 0x09, 0x14, 0x08, 0x00, 0xf9, 0x05, 0xf1, 0x05, 0xf3, 0xfb,
		  0x16, 0x10, 0xf8, 0x05, 0xfa, 0x0c, 0xf0, 0x15, 0xfd, 0x0b, 0x1b, 0xfc, 0xff, 0x01, 0x12, 0x18,
		  0x20, 0x00, 0x08, 0x11, 0x0d, 0x06, 0x0e, 0x11, 0xfd, 0x14, 0x0f, 0xf9, 0x07, 0x20, 0x14, 0x06,
		  0x1c, 0x00, 0x0b, 0x0a, 0x00, 0x11, 0xfe, 0x1e, 0x0e, 0xfd, 0x0f, 0x12, 0xe9, 0x25, 0x11, 0xfe,
		  0x07, 0xe9, 0x1a, 0x10, 0x07, 0x0a, 0x10, 0xff, 0xe6, 0xfc, 0xf9, 0x0f, 0x28, 0xf9, 0x20, 0x2f,
		  0x00, 0x03, 0x32, 0xfa, 0xfb, 0x12, 0x25, 0x2b, 0x11, 0xf4, 0xff, 0x0f, 0xf7, 0x2e, 0x31, 0xee,
		  0xed, 0xe5, 0x1f, 0xf5, 0x01, 0x26, 0xfa, 0xee, 0xe8, 0xed, 0xff, 0x2d, 0x25, 0xf6, 0x29, 0x34,
		  0xf1, 0xe7, 0x1c, 0x05, 0xfd, 0x2d, 0x25, 0x2f, 0x28, 0xf4, 0x00, 0x1a, 0xef, 0x30, 0x25, 0xe9,
		  0xe0, 0xe8, 0x2a, 0xec, 0xff, 0x1f, 0xf5, 0xe8, 0xe9, 0xe3, 0xf3, 0x3c, 0x22, 0xe0, 0x25, 0x33,
		  0xe6, 0xdb, 0x31, 0xf6, 0x10, 0x30, 0x33, 0x25, 0x02, 0xd0, 0xde, 0x32, 0x0b, 0x25, 0x0c, 0xdd,
		  0xda, 0xef, 0x14, 0xe2, 0xdc, 0xf5, 0xdd, 0xd1, 0xef, 0xd1, 0xef, 0x35, 0x06, 0xd6, 0xf9, 0x13,
		  0xe8, 0xdf, 0x2d, 0xd7, 0x03, 0x39, 0x1f, 0x52, 0x1c, 0xf2, 0xf9, 0x33, 0xe2, 0x45, 0x49, 0xf8,
		  0xe6, 0xd9, 0x59, 0xfc, 0xf1, 0x3c, 0x06, 0xf6, 0xdf, 0xf4, 0x04, 0x40, 0x66, 0xdd, 0x3b, 0x7f,
		  0xf5, 0xd3, 0x50, 0xf7, 0xf9, 0xfc, 0xfa, 0x05, 0xfe, 0x03, 0x08, 0x04, 0x09, 0xfa, 0xfc, 0xf9,
		  0x08, 0xf5, 0x03, 0x02, 0x00, 0x0d, 0x02, 0x06, 0xf5, 0x05, 0x00, 0x07, 0xfa, 0x0c, 0xfa, 0xf3,
		  0xfa, 0xf4, 0xf3, 0xf7, 0x08, 0x00, 0x09, 0x0b, 0x05, 0x07, 0x09, 0x08, 0x06, 0x10, 0xf7, 0x08,
		  0x02, 0x13, 0x00, 0x09, 0xff, 0x08, 0x09, 0x0d, 0x0d, 0x0f, 0x04, 0xf8, 0xf8, 0x09, 0x06, 0x0b,
		  0x11, 0x08, 0x04, 0x08, 0xbe, 0xeb, 0xde, 0x4a, 0x4a, 0x2a, 0x3b, 0xe2, 0xb9, 0x40, 0x69, 0x21,
		  0x38, 0xd6, 0x49, 0x23, 0x2d, 0x58, 0x2f, 0x30, 0xe2, 0x26, 0x0a, 0xd7, 0x4c, 0x2b, 0x59, 0x5b,
		  0x2a, 0x9b, 0x17, 0x33, 0x03, 0x21, 0x30, 0x37, 0x16, 0xf8, 0x06, 0x2d, 0xef, 0x35, 0x3f, 0xea,
		  0xe7, 0xd0, 0x2c, 0xed, 0xf7, 0x41, 0xf2, 0xfa, 0xed, 0xeb, 0xf5, 0x31, 0x43, 0xe1, 0x35, 0x3b,
		  0xef, 0xe0, 0x2d, 0xf5, 0x0b, 0x00, 0xf7, 0xf9, 0xff, 0x0f, 0x01, 0xfb, 0x0c, 0xfc, 0xf2, 0x18,
		  0x08, 0x0c, 0x09, 0x0e, 0x0b, 0x0a, 0x09, 0x0c, 0xf7, 0x17, 0x08, 0xe6, 0xf1, 0x24, 0x00, 0x03,
		  0x1a, 0x13, 0x07, 0xff, 0x08, 0x04, 0x02, 0x15, 0x11, 0xf5, 0x01, 0x16, 0xf1, 0x12, 0x11, 0xfd,
		  0xff, 0xff, 0x12, 0xfe, 0x00, 0x03, 0xf9, 0x04, 0x07, 0x06, 0x01, 0x12, 0x15, 0x0b, 0x00, 0x2f,
		  0xf8, 0xfa, 0x25, 0x00, 0x0f, 0x09, 0xff, 0x1a, 0x0b, 0x0e, 0xfc, 0x02, 0x0c, 0x08, 0x01, 0xfe,
		  0x03, 0xf9, 0x04, 0xfe, 0xf9, 0x0c, 0x04, 0xfe, 0xfe, 0xfd, 0x00, 0x0f, 0x15, 0x05, 0x0d, 0x0a,
		  0x15, 0xfe, 0x1e, 0x06, 0xfc, 0x0c, 0x03, 0x0d, 0xfd, 0x05, 0xfa, 0x0a, 0xf1, 0x16, 0x03, 0xfc,
		  0xfa, 0xf1, 0x24, 0x07, 0xf9, 0x06, 0xfe, 0x04, 0xef, 0x06, 0xfa, 0x0e, 0x1e, 0x07, 0x19, 0x27,
		  0xfc, 0xf3, 0x25, 0x01, 0xe1, 0x02, 0xfb, 0x2c, 0x11, 0x07, 0x07, 0x01, 0xe5, 0x2d, 0x25, 0x0e,
		  0xfb, 0xe2, 0x1b, 0x09, 0xfc, 0x21, 0x13, 0x0b, 0xed, 0x02, 0x04, 0xff, 0x24, 0x0b, 0x27, 0x24,
		  0x0d, 0xe4, 0x15, 0x02, 0x0f, 0x24, 0x2f, 0x0e, 0xf3, 0xd7, 0xdf, 0x2f, 0x13, 0x18, 0x1b, 0xf0,
		  0xd4, 0xf2, 0x0d, 0xe8, 0xe2, 0x06, 0xeb, 0xde, 0xfb, 0xd9, 0xf5, 0x32, 0xf4, 0xd6, 0xf7, 0x28,
		  0xdb, 0xe3, 0x26, 0xf5, 0x01, 0xe0, 0xda, 0xcc, 0xe1, 0x1d, 0x0c, 0xdd, 0x1d, 0xd3, 0xda, 0x08,
		  0x23, 0x2b, 0xe1, 0x10, 0x08, 0xdb, 0x0c, 0x15, 0x17, 0x24, 0x0a, 0xdc, 0xce, 0x26, 0xd8, 0xdb,
		  0x25, 0x21, 0xdd, 0x04, 0xfe, 0x09, 0xfa, 0x0e, 0x0a, 0x0c, 0x06, 0x01, 0xf9, 0x0c, 0x10, 0x09,
		  0xf8, 0xfc, 0x15, 0x0b, 0xfd, 0x15, 0x02, 0xff, 0x05, 0xfa, 0x00, 0x07, 0x1a, 0xf6, 0x13, 0x16,
		  0x0b, 0x01, 0x1d, 0x0e, 0x0c, 0x01, 0xf0, 0xf4, 0xed, 0x11, 0x09, 0xf8, 0x0b, 0xef, 0xf2, 0xfe,
		  0x0d, 0x11, 0x09, 0x0d, 0x09, 0xf0, 0x07, 0x02, 0x12, 0x03, 0xfc, 0xf5, 0xf4, 0x20, 0xfc, 0x03,
		  0x16, 0x0c, 0x0c, 0x08, 0x3e, 0x1d, 0x20, 0xac, 0xba, 0xcd, 0xd4, 0x1e, 0x41, 0xae, 0x99, 0xe9,
		  0xd6, 0x1b, 0xbf, 0xd8, 0xdd, 0xa5, 0xe4, 0xd6, 0x33, 0xc9, 0xf7, 0x16, 0xbf, 0xce, 0xa9, 0xa7,
		  0xce, 0x52, 0xd1, 0xd8, 0x0a, 0x19, 0x0d, 0xe6, 0x00, 0xfd, 0xe2, 0x14, 0x15, 0xee, 0xfa, 0xf9,
		  0xf6, 0x1c, 0xf9, 0xf0, 0xe8, 0x01, 0xe8, 0xea, 0x18, 0xf3, 0xef, 0x0d, 0xe6, 0xf4, 0xe7, 0x09,
		  0x00, 0x05, 0xfd, 0xec, 0xea, 0x0f, 0x0a, 0x23, 0x1a, 0xfc, 0x06, 0x0c, 0xe6, 0x2b, 0x1d, 0xfc,
		  0x05, 0xe6, 0x11, 0x01, 0xff, 0x27, 0xf7, 0xfd, 0xea, 0xf4, 0xfb, 0x12, 0x2a, 0xe8, 0x21, 0x18,
		  0xf0, 0xef, 0x1b, 0x09, 0x0a, 0x10, 0x04, 0x22, 0x14, 0x04, 0x0d, 0x10, 0xed, 0x26, 0x20, 0x00,
		  0x02, 0xf1, 0x22, 0x00, 0x05, 0x1b, 0x03, 0x02, 0xef, 0x0a, 0x09, 0x0e, 0x2f, 0xf8, 0x15, 0x26,
		  0x0a, 0xf2, 0x2b, 0x05, 0x15, 0x09, 0xff, 0x06, 0xf4, 0xea, 0xe4, 0x07, 0x10, 0xfa, 0xf0, 0xe6,
		  0xe2, 0x0d, 0xf7, 0xf0, 0xf0, 0xf0, 0xed, 0xe8, 0xf6, 0xe2, 0x02, 0x0c, 0xf5, 0xe5, 0xff, 0xf3,
		  0xf6, 0xfd, 0xf7, 0xfb, 0x15, 0xd6, 0xc2, 0xb2, 0xd8, 0x2a, 0x0b, 0xd1, 0x24, 0xc1, 0xba, 0x17,
		  0x29, 0x2c, 0xcc, 0x0c, 0x10, 0xc8, 0x08, 0x1f, 0x20, 0x24, 0x05, 0xb5, 0xb8, 0x3c, 0xc7, 0xaa,
		  0x2c, 0x28, 0xd2, 0x09, 0x20, 0x03, 0x06, 0xbe, 0xda, 0xfc, 0xec, 0xff, 0x32, 0xc0, 0xce, 0xfc,
		  0xfd, 0x3c, 0xd8, 0xf2, 0xef, 0xd8, 0xf8, 0x08, 0x27, 0x0a, 0x05, 0xfe, 0xba, 0x08, 0xd1, 0xd1,
		  0x10, 0x25, 0xdb, 0xf0, 0xd9, 0xd4, 0xce, 0x1d, 0x2c, 0x27, 0x2d, 0xd8, 0xd5, 0x17, 0x2a, 0x33,
		  0x35, 0xe7, 0x1d, 0x36, 0x2c, 0x2c, 0x2e, 0x2e, 0xe8, 0x28, 0x18, 0xc7, 0x0b, 0x39, 0x1c, 0xff,
		  0x34, 0xe2, 0x00, 0x2e, 0x00, 0xc7, 0xb7, 0xaf, 0xdd, 0x28, 0x06, 0xd6, 0x11, 0xb3, 0xba, 0x0c,
		  0x1f, 0x35, 0xc4, 0x18, 0x10, 0xc0, 0x0e, 0x12, 0x2b, 0x1e, 0x11, 0xbe, 0xb7, 0x32, 0xc6, 0xb4,
		  0x20, 0x39, 0xc1, 0x05, 0xbe, 0xf1, 0xdf, 0x50, 0x3e, 0x20, 0x2b, 0xe5, 0xc1, 0x4e, 0x4a, 0x1c,
		  0x25, 0xce, 0x35, 0x16, 0x16, 0x42, 0x1f, 0x0d, 0xe7, 0x1f, 0x00, 0xf3, 0x4c, 0x06, 0x43, 0x4a,
		  0x02, 0xc4, 0x28, 0x17, 0x12, 0x22, 0x30, 0x42, 0x25, 0xe8, 0xfe, 0x30, 0xe4, 0x2f, 0x3e, 0xec,
		  0xec, 0xc8, 0x38, 0xfd, 0xf3, 0x34, 0xf3, 0xfe, 0xeb, 0xe5, 0x06, 0x42, 0x56, 0xd9, 0x35, 0x4e,
		  0xf9, 0xcc, 0x3e, 0x04, 0x10, 0xd8, 0xce, 0xa0, 0xd0, 0x19, 0x00, 0xd6, 0x14, 0xb5, 0xb4, 0x1c,
		  0x27, 0x36, 0xc1, 0x1d, 0x10, 0xbd, 0x1b, 0x1c, 0x29, 0x28, 0x19, 0xb1, 0xb0, 0x33, 0xd0, 0xa9,
		  0x2a, 0x20, 0xbe, 0xfe, 0xec, 0xe6, 0xff, 0xff, 0xf0, 0xe6, 0xff, 0xff, 0x7e, 0xf1, 0xff, 0xff,
		  0x04, 0x00, 0x00, 0x00, 0x80, 0x0c, 0x00, 0x00, 0x00, 0xf9, 0xf9, 0x07, 0x0b, 0xf6, 0x06, 0x0c,
		  0x10, 0xff, 0x14, 0x14, 0x0f, 0x09, 0x06, 0x0b, 0x02, 0xfe, 0xf9, 0xe6, 0xdd, 0xf0, 0xdc, 0xeb,
		  0xe0, 0xe2, 0xf0, 0xed, 0xf5, 0xf9, 0xf0, 0x07, 0x13, 0x19, 0x0e, 0x1a, 0x11, 0x0e, 0x0a, 0x10,
		  0x1c, 0x19, 0x0e, 0xfe, 0xfc, 0xfc, 0x09, 0x1b, 0x1e, 0x1b, 0x1a, 0x1f, 0x27, 0x21, 0x13, 0x2f,
		  0x3b, 0x22, 0x2e, 0x30, 0x1e, 0x1f, 0x08, 0xf6, 0xf3, 0xf1, 0xe6, 0xe1, 0xe2, 0xe8, 0xf7, 0xef,
		  0xf8, 0xf5, 0xf9, 0x02, 0x0e, 0x16, 0x14, 0x0b, 0x0c, 0x07, 0x18, 0x0f, 0x01, 0x0f, 0x09, 0x0b,
		  0x0c, 0x05, 0x06, 0x05, 0xfb, 0xfe, 0x0b, 0x10, 0xfe, 0x01, 0x02, 0xfa, 0x16, 0xff, 0x04, 0x04,
		  0x0a, 0x06, 0x12, 0x02, 0x02, 0x06, 0x0e, 0xfb, 0xf8, 0x0f, 0x0c, 0x03, 0xff, 0xfe, 0x06, 0xf9,
		  0xf7, 0x0a, 0xfd, 0x05, 0x11, 0x01, 0x01, 0xfd, 0x10, 0x07, 0x0c, 0xfe, 0xfe, 0x08, 0x02, 0x13,
		  0xff, 0x11, 0xf4, 0x03, 0x0d, 0x03, 0x0c, 0x01, 0xff, 0x02, 0x0c, 0x17, 0xfd, 0xfe, 0xfc, 0x02,
		  0x10, 0x06, 0x01, 0x04, 0x16, 0x09, 0xfb, 0x0b, 0xff, 0x13, 0x0a, 0x04, 0x03, 0x0e, 0xf5, 0xf6,
		  0x0a, 0xf7, 0x08, 0x01, 0xf7, 0x02, 0x0d, 0x10, 0x07, 0xf9, 0xfa, 0x0e, 0xf5, 0x0d, 0xf8, 0x02,
		  0xfc, 0xfc, 0xf9, 0xff, 0x05, 0xfa, 0xfa, 0x08, 0x0b, 0x08, 0xf6, 0x05, 0x0f, 0xff, 0x05, 0xff,
		  0x10, 0x14, 0x17, 0x16, 0x0b, 0x03, 0x08, 0x07, 0xf2, 0xfd, 0xfd, 0xfc, 0xfc, 0xf2, 0xfb, 0x04,
		  0x01, 0xf5, 0x03, 0x02, 0x04, 0x09, 0x09, 0x0a, 0x17, 0x09, 0x0e, 0x03, 0x08, 0x0a, 0xff, 0x09,
		  0x01, 0x08, 0x01, 0xf3, 0x0a, 0xf8, 0x08, 0x05, 0xfe, 0xfb, 0x0d, 0xfd, 0x0e, 0x08, 0xfc, 0x0c,
		  0x07, 0x02, 0x03, 0x11, 0x02, 0x07, 0x14, 0x19, 0x09, 0x0c, 0x1b, 0x1b, 0x21, 0x24, 0x2a, 0x2d,
		  0x2a, 0x31, 0x22, 0x18, 0x1c, 0x20, 0x17, 0x05, 0x0b, 0xf0, 0xf6, 0x06, 0xf0, 0xf1, 0xea, 0xe6,
		  0xde, 0xdb, 0xea, 0xdb, 0xe0, 0xec, 0xea, 0xe1, 0xf4, 0xe6, 0xf7, 0xf8, 0xfc, 0xf5, 0xf7, 0xfc,
		  0xfc, 0x05, 0xff, 0xfd, 0x01, 0xfa, 0x00, 0x07, 0xf3, 0xf2, 0xfb, 0xef, 0xfa, 0xf2, 0xef, 0x00,
		  0xf0, 0x01, 0xf7, 0xf1, 0xf5, 0xea, 0xe9, 0xe1, 0xec, 0xdd, 0xc5, 0xb6, 0xc2, 0xb7, 0xd0, 0xe0,
		  0xdb, 0xe2, 0xef, 0xe5, 0xe4, 0xf5, 0x02, 0x01, 0xfa, 0xf5, 0xf4, 0xfa, 0x08, 0x0b, 0x1c, 0x22,
		  0x15, 0x0c, 0x1d, 0x26, 0x23, 0x24, 0x27, 0x26, 0x1e, 0x29, 0x21, 0x0b, 0x12, 0x02, 0x03, 0xfc,
		  0xef, 0xf2, 0xe9, 0xe2, 0xd3, 0xc1, 0xdb, 0xda, 0xe2, 0xe7, 0xf5, 0xf6, 0x08, 0x1a, 0x26, 0x2e,
		  0x37, 0x29, 0x0e, 0x0d, 0x0c, 0x07, 0x03, 0xf9, 0xfe, 0xec, 0xdd, 0xd0, 0xc8, 0xda, 0xd2, 0xe9,
		  0xe6, 0xf5, 0xf6, 0x0d, 0x05, 0x0d, 0x04, 0x0e, 0xf6, 0xf9, 0xfc, 0xf6, 0xf7, 0x06, 0xfb, 0x01,
		  0xfc, 0xf3, 0xeb, 0xf2, 0xf1, 0xeb, 0xd1, 0xc1, 0xb8, 0xa8, 0xb4, 0xb2, 0xc5, 0xd8, 0xdf, 0xec,
		  0xe7, 0xf9, 0x1a, 0x16, 0x2b, 0x25, 0x32, 0x2e, 0x2f, 0x1c, 0x28, 0x14, 0x12, 0x08, 0xfd, 0x0e,
		  0x0f, 0x0e, 0x01, 0x02, 0x00, 0x01, 0x0e, 0xf7, 0x08, 0x01, 0xfb, 0xfd, 0x00, 0xf2, 0xfa, 0xe7,
		  0xf9, 0xf0, 0x04, 0xef, 0xfb, 0xfd, 0xfb, 0xf8, 0xf4, 0xff, 0x0c, 0xff, 0xfb, 0x0c, 0x08, 0xfb,
		  0xea, 0xfd, 0xf8, 0xfd, 0xe7, 0xe9, 0xe9, 0xe2, 0xe3, 0xe2, 0xed, 0xe4, 0xf7, 0xfd, 0xfc, 0x10,
		  0x15, 0x05, 0x08, 0xfe, 0x00, 0xfe, 0xf1, 0xfc, 0xeb, 0xec, 0xf2, 0xef, 0xf3, 0x06, 0x02, 0xef,
		  0x02, 0x01, 0x00, 0x07, 0xf3, 0xfe, 0x05, 0xf8, 0xf4, 0xf9, 0xf9, 0x0a, 0xf5, 0x05, 0x07, 0xf0,
		  0x03, 0xfe, 0xff, 0xef, 0x05, 0xed, 0x05, 0xf5, 0xfb, 0xf5, 0x00, 0xf9, 0xfa, 0xfd, 0xfd, 0x03,
		  0xfa, 0xf0, 0xfc, 0xf1, 0x01, 0x01, 0xf4, 0xec, 0x03, 0xfb, 0xfb, 0xfe, 0xf3, 0xf3, 0x00, 0xfa,
		  0xf1, 0x05, 0x08, 0xf8, 0xf7, 0xf8, 0x02, 0xfe, 0xf7, 0xfb, 0x0a, 0xfa, 0xfd, 0x07, 0x01, 0xf3,
		  0xf3, 0xf1, 0xf0, 0x01, 0x08, 0xf8, 0xfa, 0x01, 0xef, 0x05, 0x05, 0xf0, 0x03, 0xf7, 0x06, 0xf1,
		  0xff, 0xf2, 0xef, 0x02, 0x04, 0xf3, 0xff, 0x08, 0x05, 0x03, 0x01, 0xf1, 0xed, 0xfe, 0x00, 0xf8,
		  0xea, 0xe8, 0xf3, 0xf9, 0xfa, 0xf6, 0xfd, 0x07, 0x10, 0x0f, 0x09, 0x09, 0xff, 0x08, 0x0d, 0xfe,
		  0xfa, 0x00, 0xf9, 0xfd, 0xed, 0xec, 0xf4, 0xfe, 0xf5, 0x04, 0xf4, 0xff, 0xfa, 0x0f, 0x13, 0x06,
		  0x01, 0x10, 0x0a, 0x03, 0x03, 0xf4, 0x0a, 0xfd, 0xeb, 0xe4, 0xf4, 0xf4, 0xf1, 0xf0, 0xea, 0xeb,
		  0xed, 0xfc, 0x09, 0x03, 0x00, 0x01, 0x08, 0x0d, 0xfa, 0x0a, 0x04, 0x11, 0x0a, 0x12, 0x00, 0xf6,
		  0xf9, 0xf9, 0xf3, 0xee, 0x02, 0x02, 0xf2, 0xea, 0xfc, 0xfc, 0xee, 0xe6, 0xf1, 0xea, 0xf4, 0xdd,
		  0xf1, 0xf5, 0xef, 0xf0, 0xe8, 0xec, 0xe9, 0xf7, 0xfa, 0x01, 0x05, 0xff, 0x03, 0xfa, 0x0e, 0xf7,
		  0x06, 0x09, 0x03, 0xef, 0x0a, 0x1b, 0x06, 0xff, 0x05, 0x10, 0x06, 0x04, 0xff, 0x05, 0x04, 0x03,
		  0x04, 0x06, 0x01, 0x0a, 0xf9, 0x0b, 0x04, 0xfe, 0x0a, 0xf6, 0xf7, 0xfd, 0xfe, 0x0f, 0xf7, 0x01,
		  0x15, 0x0d, 0x00, 0x0b, 0xfb, 0x11, 0x12, 0x03, 0xfc, 0x06, 0x0e, 0x0a, 0x06, 0x04, 0x06, 0x08,
		  0x0d, 0xff, 0x0e, 0x05, 0xfb, 0x0d, 0x07, 0x06, 0x00, 0xfe, 0x0f, 0x05, 0xff, 0x09, 0x0b, 0x11,
		  0x02, 0xfa, 0x06, 0xf8, 0x03, 0x0d, 0x03, 0x14, 0xff, 0xfb, 0x00, 0xf1, 0x0c, 0x06, 0xfb, 0x05,
		  0xfa, 0x06, 0x03, 0x00, 0x09, 0xed, 0xff, 0x07, 0x09, 0x02, 0x09, 0xee, 0x0a, 0xf9, 0xfc, 0x04,
		  0x09, 0x08, 0x07, 0xfa, 0xff, 0x02, 0x03, 0x12, 0xdb, 0xe2, 0xeb, 0xdf, 0xe0, 0xd4, 0xcd, 0xd6,
		  0xd6, 0xda, 0xd6, 0xf7, 0xef, 0xf3, 0xf7, 0xfa, 0xfa, 0x07, 0x05, 0x10, 0x15, 0x20, 0x11, 0x19,
		  0x0f, 0x1f, 0x1d, 0x1e, 0x21, 0x22, 0x1d, 0x28, 0x17, 0x2b, 0x25, 0x0c, 0x1e, 0x03, 0x10, 0xfe,
		  0xfc, 0xf2, 0xef, 0xf5, 0x03, 0xfa, 0xf9, 0x10, 0x10, 0x12, 0x15, 0x2c, 0x2b, 0x1e, 0x17, 0x1d,
		  0x22, 0x13, 0x11, 0xff, 0xf1, 0xeb, 0xdd, 0xdc, 0xd6, 0xe5, 0xe0, 0xf2, 0xf1, 0xff, 0xf9, 0x04,
		  0x0e, 0x1c, 0x15, 0x25, 0x36, 0x37, 0x29, 0x25, 0x2f, 0x2e, 0x1d, 0x1a, 0x16, 0x11, 0xf7, 0xf9,
		  0x00, 0x0b, 0x09, 0xff, 0x08, 0x18, 0x13, 0x24, 0x16, 0x1a, 0x2a, 0x29, 0xf5, 0xfe, 0xfe, 0xfb,
		  0xe7, 0xf3, 0xe1, 0xe4, 0xdb, 0xe4, 0xed, 0xec, 0xee, 0xf3, 0xfc, 0xea, 0xf8, 0xfa, 0xe9, 0xf9,
		  0xf0, 0xee, 0xef, 0xe8, 0xec, 0xdd, 0xda, 0xdd, 0xd3, 0xdb, 0xe5, 0xeb, 0xf7, 0xec, 0xfc, 0xf7,
		  0xf9, 0xf7, 0x00, 0xfe, 0xfb, 0xfa, 0xec, 0xe4, 0xe3, 0xca, 0xcb, 0xc9, 0xaa, 0xb6, 0xc2, 0xc6,
		  0xeb, 0xf8, 0x0e, 0x1f, 0x1a, 0x2f, 0x4d, 0x51, 0x63, 0x6b, 0x53, 0x40, 0x29, 0x15, 0x0b, 0x03,
		  0xff, 0xff, 0x06, 0x02, 0x09, 0xf9, 0xfd, 0x03, 0xf4, 0xfc, 0xff, 0x01, 0xf9, 0xf9, 0xfa, 0xf8,
		  0xf6, 0xf3, 0xfd, 0xf4, 0x00, 0xff, 0x04, 0x05, 0x00, 0x06, 0x06, 0x09, 0x0b, 0x00, 0x07, 0xfd,
		  0xe0, 0x00, 0x0d, 0x01, 0x03, 0x09, 0x15, 0x0d, 0x04, 0x10, 0x0e, 0x07, 0x04, 0x06, 0xff, 0xf8,
		  0xfb, 0xf2, 0xf6, 0xf9, 0xfb, 0xfd, 0xfe, 0xf9, 0xfc, 0x03, 0x02, 0x0d, 0xf2, 0x02, 0xef, 0x01,
		  0xf2, 0xfb, 0xf4, 0x07, 0xf3, 0xea, 0xdd, 0xea, 0xe1, 0xe7, 0xe4, 0xea, 0xf9, 0xfc, 0xf6, 0xf0,
		  0xf5, 0xf9, 0xe3, 0xed, 0xe4, 0xe0, 0xcc, 0xc3, 0xb1, 0xb4, 0x9f, 0xa7, 0x98, 0xa7, 0xb6, 0xc5,
		  0xd7, 0xee, 0x0a, 0x1f, 0x2b, 0x34, 0x4c, 0x5d, 0x51, 0x3f, 0x2c, 0x18, 0x1f, 0x18, 0x06, 0x0d,
		  0xf5, 0xf9, 0xf9, 0xed, 0xe8, 0xfd, 0xf3, 0xf2, 0xea, 0xec, 0x01, 0xfd, 0xfb, 0xea, 0xff, 0xf7,
		  0xf8, 0xf1, 0xf9, 0xe2, 0xf3, 0xf7, 0xfb, 0x08, 0xf7, 0xfe, 0x0b, 0xf0, 0x05, 0x07, 0x05, 0xf7,
		  0x03, 0xff, 0xf3, 0x05, 0xfb, 0xf8, 0x0c, 0x01, 0xf9, 0xff, 0xf2, 0xfc, 0x0c, 0xf4, 0x00, 0xf8,
		  0xfb, 0xf4, 0x09, 0x05, 0xf5, 0xf0, 0xfb, 0xff, 0xf3, 0xf8, 0xf4, 0xfc, 0xfe, 0xf7, 0xfc, 0xfb,
		  0x07, 0xf8, 0xf3, 0xf9, 0x05, 0xee, 0xf8, 0xf5, 0x00, 0xf2, 0x01, 0xf8, 0x0b, 0x06, 0xf4, 0x06,
		  0xf7, 0x0a, 0xf2, 0x02, 0xf2, 0xfd, 0x02, 0xfb, 0x04, 0x06, 0x03, 0xfa, 0x02, 0xf6, 0x0f, 0x0c,
		  0x08, 0xf4, 0x02, 0xf2, 0xff, 0x01, 0x02, 0xf1, 0x04, 0xfc, 0x03, 0x02, 0xff, 0xff, 0xec, 0xf7,
		  0xff, 0x05, 0xfc, 0xf0, 0x01, 0x00, 0xef, 0xf3, 0x00, 0xf2, 0xfe, 0x07, 0x09, 0xfd, 0x05, 0xee,
		  0x07, 0x03, 0xfd, 0xf8, 0x04, 0xf8, 0x07, 0xf7, 0x00, 0xfc, 0xf7, 0xf5, 0xf8, 0xfd, 0x02, 0x03,
		  0xfe, 0x05, 0x08, 0xeb, 0xf2, 0xff, 0xef, 0xf6, 0xf1, 0xfd, 0xfa, 0xff, 0xff, 0x06, 0xfa, 0xf3,
		  0x03, 0xf6, 0xfd, 0xf7, 0x04, 0xee, 0xfc, 0xf8, 0xff, 0xfd, 0xf3, 0x0a, 0x05, 0xff, 0x00, 0xfb,
		  0xf6, 0xfb, 0xf9, 0xfd, 0x07, 0xf9, 0x0d, 0xf6, 0x08, 0x0a, 0xec, 0x03, 0xf6, 0xf4, 0xfa, 0xea,
		  0xf8, 0xe9, 0xfd, 0xfe, 0xf9, 0xf4, 0xe2, 0xe9, 0xf7, 0xe6, 0xf0, 0xfe, 0xfe, 0xff, 0x00, 0xf1,
		  0xf5, 0xf7, 0xf4, 0xfe, 0xfe, 0xf6, 0xfe, 0x05, 0x07, 0xf9, 0x08, 0xf4, 0xf8, 0x03, 0x08, 0xff,
		  0xfe, 0x06, 0xf5, 0x06, 0x00, 0xfa, 0x01, 0xff, 0x09, 0x06, 0xf3, 0x05, 0xf7, 0xec, 0xe9, 0xf3,
		  0xe6, 0xec, 0xef, 0xec, 0xf5, 0xfd, 0xf4, 0xf9, 0xf3, 0x02, 0x06, 0x07, 0x13, 0x11, 0x0f, 0xfc,
		  0xf9, 0xe2, 0xe0, 0xeb, 0xe3, 0xe2, 0xd7, 0xd9, 0xd9, 0xe9, 0xf8, 0x08, 0x06, 0x18, 0x15, 0x13,
		  0x19, 0x1e, 0x1e, 0x27, 0x13, 0x1d, 0x08, 0x0c, 0x05, 0xee, 0xe5, 0xed, 0xd8, 0xbc, 0xc2, 0xc8,
		  0xd2, 0xe2, 0xe6, 0xf9, 0x02, 0x08, 0x1a, 0x23, 0x18, 0x29, 0x28, 0x2b, 0x30, 0x20, 0x23, 0x22,
		  0x2a, 0x34, 0x2c, 0x2f, 0x43, 0x2a, 0x33, 0x32, 0x32, 0x30, 0x24, 0x2f, 0x1d, 0x1e, 0x12, 0x20,
		  0x13, 0x22, 0x0f, 0x03, 0x09, 0xec, 0x00, 0xec, 0xe8, 0xf2, 0xe8, 0xe2, 0xef, 0xe3, 0xf4, 0x00,
		  0xf9, 0xf9, 0xfe, 0xf9, 0xfa, 0xef, 0xf0, 0xf6, 0xef, 0xed, 0xe8, 0xe2, 0xe7, 0xe2, 0xdf, 0xda,
		  0xe8, 0xfd, 0x10, 0x12, 0x27, 0x28, 0x2d, 0x1d, 0x27, 0x18, 0x01, 0xed, 0xf3, 0xf1, 0xec, 0xee,
		  0xe7, 0xd2, 0xc5, 0xc0, 0xa8, 0xb2, 0xb6, 0xcb, 0xdb, 0xd8, 0xe3, 0xe0, 0x00, 0xf1, 0x0b, 0x04,
		  0x12, 0x12, 0x05, 0xfb, 0xea, 0xf1, 0xda, 0xe9, 0xe3, 0xeb, 0xe6, 0xec, 0xf6, 0xfa, 0x0a, 0x03,
		  0x0b, 0x09, 0xff, 0xf7, 0x09, 0x09, 0x0f, 0x05, 0x07, 0x14, 0x11, 0x17, 0x13, 0x26, 0x2a, 0x1c,
		  0x1f, 0x26, 0x2a, 0x35, 0xf7, 0x09, 0xf5, 0x0a, 0x06, 0xf6, 0xf5, 0x12, 0x01, 0xfe, 0xfa, 0x02,
		  0xfe, 0x02, 0xfa, 0xf8, 0xfc, 0xff, 0xf1, 0x06, 0xfc, 0xf2, 0xf4, 0x09, 0xf5, 0xfb, 0xfa, 0xf9,
		  0xfa, 0x01, 0xf8, 0x09, 0xf7, 0x00, 0xfe, 0xf8, 0xf2, 0x02, 0x00, 0xfb, 0xf5, 0xf8, 0xf9, 0xf6,
		  0xe8, 0x02, 0x05, 0xfb, 0x02, 0xf6, 0x03, 0x02, 0xf7, 0xee, 0xf7, 0x04, 0x02, 0xef, 0xf9, 0x04,
		  0x05, 0xfe, 0xf1, 0xfe, 0x02, 0xfa, 0xee, 0xfe, 0xf5, 0x0d, 0x0d, 0xfe, 0xfa, 0x12, 0x00, 0x09,
		  0x0c, 0xf9, 0x0b, 0x0e, 0xef, 0xfe, 0xf3, 0xf2, 0xf6, 0xf2, 0xf9, 0xf8, 0x04, 0x0a, 0xfd, 0xf5,
		  0x03, 0xf7, 0xf3, 0x07, 0xfa, 0xf7, 0xed, 0x01, 0xfb, 0xf7, 0xfa, 0xf0, 0xf9, 0x07, 0x02, 0xef,
		  0x07, 0x09, 0xf7, 0x08, 0xfd, 0xf9, 0x06, 0xfb, 0xf9, 0x00, 0x04, 0x03, 0x00, 0x0a, 0xf1, 0xf6,
		  0x09, 0xf9, 0x01, 0xf4, 0x00, 0xfe, 0xf3, 0xf1, 0x05, 0xfc, 0x00, 0xf2, 0xfb, 0x05, 0xfe, 0x01,
		  0xe6, 0xfa, 0x01, 0xeb, 0xfd, 0xf8, 0x00, 0xfe, 0x01, 0xf6, 0xf7, 0xf3, 0x02, 0xf4, 0x08, 0x0d,
		  0x0a, 0xff, 0xff, 0x03, 0xf8, 0x06, 0xfb, 0xfc, 0x01, 0x01, 0x02, 0xef, 0xf7, 0xef, 0x09, 0x05,
		  0xf0, 0x07, 0xf1, 0x04, 0xef, 0xf9, 0xfe, 0x05, 0xed, 0xfa, 0x04, 0xf9, 0xf9, 0xf2, 0x04, 0xf1,
		  0xf0, 0xf2, 0x00, 0x08, 0x02, 0xf9, 0xf2, 0x01, 0xf7, 0x06, 0xf0, 0xf4, 0xe5, 0xe1, 0xf6, 0xfc,
		  0x02, 0x11, 0x05, 0x13, 0x0b, 0x0d, 0x15, 0x14, 0x05, 0x0c, 0x09, 0x00, 0x00, 0xfb, 0xf8, 0xfc,
		  0xe8, 0xf7, 0xfd, 0xeb, 0x01, 0xf1, 0xf3, 0xfe, 0xf1, 0xf6, 0xee, 0x0a, 0x05, 0x04, 0x00, 0xf8,
		  0xff, 0x03, 0x07, 0x00, 0xfe, 0xf2, 0xf9, 0xef, 0xf0, 0xf6, 0xeb, 0xe2, 0xfa, 0xf4, 0xef, 0x04,
		  0xe7, 0xe2, 0xec, 0xe2, 0xe9, 0xf7, 0xf9, 0xf2, 0xf3, 0xe6, 0xd7, 0xd5, 0xd1, 0xbf, 0xb8, 0xb3,
		  0xb6, 0x9c, 0x9d, 0xa2, 0xa9, 0xb7, 0xcb, 0xd9, 0xe3, 0xf0, 0x11, 0x16, 0x26, 0x20, 0x20, 0x37,
		  0x34, 0x3e, 0x26, 0x2d, 0x18, 0x1f, 0x18, 0x06, 0x0b, 0x0b, 0x08, 0x03, 0xef, 0xee, 0xef, 0xe7,
		  0xfc, 0x06, 0x01, 0xf0, 0xf3, 0x0c, 0x00, 0x01, 0x0a, 0xf9, 0xfe, 0xfc, 0x0f, 0x0c, 0xfb, 0xfd,
		  0x04, 0xfa, 0xf1, 0xfe, 0x04, 0x08, 0xef, 0xf6, 0xfa, 0xea, 0xef, 0xf7, 0xf8, 0x0a, 0xfc, 0x03,
		  0xf7, 0x0b, 0x0a, 0xfa, 0xfb, 0xf4, 0xf6, 0xf4, 0xf1, 0xfa, 0x00, 0x06, 0xf2, 0xee, 0xff, 0x01,
		  0x0c, 0x02, 0x0a, 0xf2, 0xfc, 0x01, 0xf2, 0xf5, 0xf1, 0x0c, 0xff, 0xf2, 0x0a, 0xf4, 0x01, 0xf5,
		  0x07, 0xfe, 0xf2, 0xf5, 0xf5, 0xf8, 0xee, 0xfe, 0x04, 0xf8, 0x09, 0x0c, 0x02, 0x10, 0xf2, 0x07,
		  0x05, 0xfb, 0xf1, 0x0c, 0xf1, 0xf5, 0x09, 0xf2, 0x08, 0x06, 0x02, 0x00, 0xfd, 0xf9, 0xfd, 0xef,
		  0x03, 0xf4, 0xe9, 0xe8, 0xfb, 0xfa, 0x04, 0x00, 0xfc, 0xef, 0xfd, 0xf2, 0xfb, 0xf7, 0xf6, 0x06,
		  0xfb, 0x03, 0xf6, 0xfd, 0x05, 0xf6, 0xfd, 0x00, 0xf5, 0xf3, 0x0a, 0xff, 0x03, 0x06, 0xf1, 0x06,
		  0xfc, 0xf6, 0xf5, 0xf3, 0x0c, 0xf7, 0xf7, 0xf2, 0x06, 0x01, 0xf4, 0x04, 0x01, 0x05, 0xef, 0xef,
		  0xee, 0xfa, 0x06, 0xfb, 0x03, 0xf5, 0x01, 0xf8, 0xf4, 0xe9, 0xfc, 0xff, 0x03, 0xf1, 0x02, 0xf7,
		  0x01, 0xff, 0x02, 0xf1, 0x05, 0xec, 0xf1, 0x06, 0xf7, 0xee, 0xf9, 0xfd, 0x01, 0xf8, 0xf8, 0xf9,
		  0x0a, 0xf6, 0xf3, 0x09, 0xf6, 0xf5, 0xfd, 0xff, 0xff, 0x05, 0x08, 0xf9, 0xfc, 0xfb, 0x02, 0x07,
		  0xfd, 0x0a, 0xf6, 0xff, 0x03, 0xfb, 0xf0, 0xf8, 0x56, 0x43, 0x27, 0x3c, 0x23, 0x36, 0x2a, 0x29,
		  0x19, 0x34, 0x2e, 0x35, 0x2d, 0x3b, 0x24, 0x1f, 0x21, 0x18, 0x17, 0x11, 0xf6, 0xfb, 0xfb, 0xe2,
		  0xf5, 0xdf, 0xe4, 0xda, 0xd9, 0xdc, 0xe1, 0xd7, 0xe6, 0xe6, 0xe4, 0xe4, 0xe2, 0xdc, 0xea, 0xf6,
		  0xfa, 0xf9, 0xf8, 0xf7, 0xfb, 0x0c, 0x14, 0x08, 0x18, 0x18, 0x1e, 0x22, 0x1a, 0x1e, 0x18, 0x07,
		  0xf9, 0xf1, 0xf7, 0xe3, 0xe7, 0xee, 0xf6, 0x00, 0xf6, 0x0d, 0xff, 0x0f, 0x15, 0x06, 0x1d, 0x21,
		  0x1c, 0x1a, 0x08, 0xfc, 0xfa, 0xfc, 0xef, 0xeb, 0xdf, 0xdf, 0xc8, 0xcd, 0xd8, 0xf1, 0xea, 0xec,
		  0x03, 0xf2, 0x12, 0x03, 0x13, 0x17, 0x0d, 0xff, 0x02, 0xfc, 0xeb, 0xf7, 0x07, 0xf3, 0xf9, 0x01,
		  0x06, 0xf3, 0xf3, 0x01, 0xec, 0xf5, 0x02, 0xfa, 0xf1, 0x08, 0xf5, 0x01, 0xfa, 0xf9, 0x03, 0x02,
		  0xff, 0xef, 0xf9, 0xfe, 0xf3, 0xf4, 0xf2, 0x01, 0x01, 0xf4, 0x00, 0x09, 0x00, 0xfc, 0xfa, 0xf2,
		  0xfc, 0xf4, 0xfe, 0xfc, 0xec, 0xf0, 0xf8, 0xf2, 0x04, 0x03, 0xf1, 0xf7, 0xf2, 0xf6, 0xf4, 0x00,
		  0xf0, 0xea, 0x01, 0x02, 0xf5, 0xf5, 0xee, 0xe7, 0xf4, 0xf3, 0xeb, 0x04, 0x01, 0xfe, 0x0b, 0xfb,
		  0xfc, 0x00, 0x05, 0xf8, 0x04, 0xf6, 0xf8, 0xf5, 0x06, 0x0e, 0xfe, 0xf2, 0x09, 0x00, 0xf7, 0xfb,
		  0x0c, 0x0f, 0x08, 0x06, 0x03, 0xf8, 0xfc, 0xf7, 0xfb, 0xfa, 0x01, 0x07, 0xf9, 0xff, 0xfe, 0xfe,
		  0xff, 0xf4, 0x00, 0x0b, 0xf1, 0x06, 0xf1, 0x04, 0xff, 0xf3, 0x09, 0xf7, 0x01, 0x03, 0xf1, 0xff,
		  0x05, 0xfc, 0xfc, 0xf9, 0x03, 0xf2, 0xf3, 0x01, 0x06, 0xfc, 0x0c, 0xfa, 0xf7, 0xfa, 0xf4, 0xfa,
		  0xfc, 0x09, 0xfe, 0x08, 0xf3, 0xf2, 0x0b, 0x03, 0x0b, 0xff, 0x07, 0xf5, 0xf6, 0xf3, 0xf3, 0xf7,
		  0xff, 0x08, 0xf1, 0x07, 0x01, 0x05, 0xf1, 0x01, 0x01, 0xf3, 0xf4, 0xf6, 0xf9, 0xef, 0xf4, 0x07,
		  0x00, 0x01, 0x00, 0xfd, 0x08, 0xf5, 0xfa, 0xfa, 0xf8, 0xff, 0xfa, 0x08, 0x07, 0x0b, 0x07, 0xf7,
		  0x09, 0xf9, 0xf4, 0xfd, 0xf0, 0x06, 0x0a, 0x03, 0xfb, 0x01, 0x01, 0xf5, 0x0b, 0x00, 0xff, 0xf9,
		  0x00, 0xfe, 0xf9, 0xf7, 0xe6, 0xea, 0xde, 0xf6, 0xf6, 0xf7, 0xfa, 0xf8, 0x00, 0x0e, 0x05, 0x09,
		  0x15, 0x13, 0x0d, 0x09, 0x12, 0x10, 0x01, 0x07, 0xf9, 0xf4, 0xf2, 0xea, 0xf9, 0xf8, 0xfa, 0xfe,
		  0xec, 0xf4, 0xf3, 0x01, 0x04, 0xfa, 0xfc, 0xfe, 0x13, 0x02, 0x10, 0x01, 0x04, 0x03, 0xf7, 0x00,
		  0x0e, 0x08, 0x03, 0x09, 0x1b, 0x06, 0x05, 0x0a, 0x05, 0x03, 0x10, 0x0a, 0x10, 0x08, 0x0b, 0xff,
		  0x05, 0x11, 0x09, 0x06, 0x0c, 0x04, 0x05, 0x0c, 0x09, 0x10, 0x1b, 0x18, 0x0a, 0x06, 0x13, 0x04,
		  0x05, 0x0c, 0x0d, 0x00, 0x13, 0x0c, 0x01, 0x00, 0x21, 0x1a, 0x25, 0x26, 0x15, 0x1f, 0x17, 0x08,
		  0x04, 0xfd, 0xf6, 0xf9, 0xf0, 0xef, 0xd7, 0xdf, 0x27, 0x2b, 0x1a, 0x1c, 0x0d, 0x16, 0x04, 0x09,
		  0x0d, 0x01, 0x06, 0xf6, 0xf6, 0xfa, 0xea, 0xff, 0xfb, 0xfc, 0x05, 0x09, 0x1e, 0x17, 0x1f, 0x14,
		  0x30, 0x31, 0x17, 0x04, 0x03, 0x01, 0xf8, 0xfb, 0x00, 0xf2, 0xe5, 0xce, 0xc7, 0xca, 0xe5, 0xed,
		  0xf3, 0xf2, 0xfa, 0x15, 0x17, 0x12, 0x32, 0x27, 0x37, 0x35, 0x2e, 0x32, 0x31, 0x1d, 0x08, 0x05,
		  0xee, 0xe0, 0xd8, 0xd8, 0xdf, 0xe4, 0xde, 0xe9, 0xdc, 0xe4, 0xd5, 0xde, 0xcd, 0xd9, 0xd6, 0xd9,
		  0xcf, 0xd0, 0xc9, 0xce, 0xd3, 0xd4, 0xd0, 0xdc, 0xdf, 0xe9, 0xf4, 0xea, 0xe2, 0xf8, 0xf8, 0xf9,
		  0xfd, 0xf8, 0x02, 0xfb, 0xf6, 0xf2, 0xf3, 0xf1, 0xfb, 0xfd, 0x07, 0x01, 0x1a, 0x30, 0x0c, 0x14,
		  0x05, 0x11, 0x06, 0x04, 0xf7, 0xf8, 0xfa, 0xef, 0xef, 0xf8, 0xfd, 0xee, 0xff, 0xfb, 0xf4, 0xf0,
		  0xf2, 0xfe, 0x03, 0xf5, 0xf5, 0xe8, 0xe4, 0xef, 0xdf, 0xdf, 0xde, 0xe7, 0xe3, 0xe1, 0xd9, 0xd6,
		  0xe9, 0xe2, 0xf6, 0xf6, 0xf9, 0xfb, 0x00, 0x00, 0xf8, 0x03, 0x0f, 0x16, 0x05, 0x03, 0xf4, 0xf0,
		  0x04, 0x08, 0x03, 0x08, 0x0f, 0x06, 0x15, 0x0a, 0x01, 0x18, 0x0b, 0x09, 0xfc, 0x00, 0x0d, 0x0c,
		  0x0f, 0xf7, 0xff, 0xff, 0xe7, 0x01, 0xeb, 0xed, 0xec, 0xe8, 0xf7, 0xfe, 0xeb, 0xe6, 0xea, 0xf5,
		  0xeb, 0xf5, 0xfd, 0xfe, 0x01, 0x0c, 0x07, 0xfc, 0x08, 0x11, 0x07, 0xfd, 0x16, 0x03, 0x11, 0x0d,
		  0xe1, 0xd6, 0xd6, 0xd6, 0xe8, 0xe6, 0xf0, 0xfa, 0x04, 0x0c, 0x02, 0x1c, 0x20, 0x18, 0x2c, 0x24,
		  0x1b, 0x1b, 0x19, 0x1b, 0x07, 0x06, 0x00, 0xee, 0xde, 0xee, 0xef, 0xee, 0xed, 0xde, 0xd9, 0xee,
		  0xec, 0xfa, 0x01, 0xfe, 0xfd, 0x0c, 0xfa, 0x06, 0xf7, 0xf6, 0x05, 0xf4, 0xff, 0xed, 0xf3, 0xfd,
		  0xfe, 0xfd, 0xf2, 0x08, 0x09, 0x05, 0xee, 0xfe, 0xf1, 0xe5, 0xed, 0xec, 0xea, 0xe5, 0xf3, 0xdb,
		  0xd2, 0xd8, 0xdc, 0xe8, 0xe7, 0xd8, 0xda, 0xdc, 0xe7, 0xda, 0xee, 0xe5, 0xe7, 0xe2, 0xd8, 0xd8,
		  0xd0, 0xd2, 0xd1, 0xcc, 0xca, 0xde, 0xde, 0xfd, 0x07, 0x05, 0x1a, 0x1e, 0x35, 0x39, 0x31, 0x35,
		  0x1e, 0x22, 0x24, 0x25, 0xf1, 0x01, 0x02, 0x07, 0x09, 0xfd, 0x11, 0x0f, 0x06, 0x0b, 0x03, 0x02,
		  0x02, 0xf9, 0x01, 0xf9, 0xfc, 0xf7, 0xf3, 0xf2, 0xef, 0xfb, 0xef, 0x00, 0xed, 0xf4, 0x00, 0xff,
		  0xfd, 0x01, 0x07, 0x0a, 0xfc, 0xef, 0xed, 0xe7, 0xdb, 0xcc, 0xbc, 0xad, 0x98, 0x83, 0x81, 0x9d,
		  0xb1, 0xc5, 0xbd, 0xcb, 0xe0, 0xff, 0x0a, 0x25, 0x21, 0x2b, 0x2e, 0x2c, 0x26, 0x27, 0x13, 0x0d,
		  0x0a, 0xfa, 0xfb, 0xed, 0xee, 0xfa, 0x06, 0x10, 0x10, 0x04, 0xfb, 0x07, 0xfe, 0x08, 0xfe, 0x07,
		  0x08, 0x04, 0x07, 0x05, 0x04, 0xfc, 0xf8, 0x01, 0xfd, 0x01, 0xfa, 0xfe, 0xfd, 0x06, 0x06, 0x0c,
		  0x0b, 0x12, 0x0b, 0x09, 0x02, 0x03, 0x04, 0xf9, 0xf4, 0xf8, 0xfc, 0xfb, 0xf6, 0x03, 0xf9, 0xeb,
		  0xe7, 0xea, 0xfd, 0xf9, 0xf9, 0xec, 0x06, 0x08, 0xf8, 0xfe, 0x03, 0xf5, 0x01, 0x06, 0xf2, 0xf5,
		  0xf6, 0x03, 0xef, 0xfc, 0x03, 0x05, 0xf3, 0xf5, 0xf5, 0x01, 0xf9, 0xf3, 0xf6, 0xf6, 0x03, 0xff,
		  0xff, 0xf7, 0xf5, 0xea, 0x00, 0x01, 0xea, 0x06, 0xfe, 0xf5, 0xec, 0xf5, 0xe7, 0xf7, 0xed, 0xf0,
		  0xf4, 0xfe, 0xee, 0xf8, 0xf3, 0xf9, 0xfc, 0x04, 0x06, 0x06, 0x04, 0x06, 0xf7, 0x0c, 0x00, 0x0e,
		  0x05, 0x00, 0x19, 0x1b, 0x01, 0x1f, 0x0c, 0x10, 0x0d, 0x15, 0x0f, 0x04, 0x03, 0x0c, 0x0a, 0x10,
		  0xfd, 0xf5, 0x00, 0x07, 0xfa, 0x02, 0xfd, 0x0c, 0xf4, 0xfd, 0xf8, 0x06, 0xfb, 0x04, 0xfe, 0x06,
		  0x00, 0xfb, 0x0a, 0xfb, 0x01, 0x0b, 0x03, 0xf9, 0xfe, 0x07, 0xfa, 0xf6, 0xf5, 0xf1, 0xee, 0x08,
		  0xff, 0x13, 0xf5, 0x0c, 0x12, 0x0b, 0x11, 0x0c, 0x16, 0x0e, 0x0d, 0xff, 0xfd, 0x0c, 0x0a, 0xe8,
		  0xf1, 0xf7, 0x03, 0xff, 0x0d, 0x1e, 0x15, 0x0c, 0x1c, 0x16, 0x23, 0x1d, 0x1d, 0x1e, 0x17, 0x21,
		  0x1c, 0x20, 0x16, 0x00, 0x05, 0x01, 0x1e, 0x27, 0x38, 0x38, 0x44, 0x32, 0x45, 0x3f, 0x41, 0x5c,
		  0x4b, 0x39, 0x2c, 0x20, 0xfa, 0x02, 0xf4, 0xdf, 0xb8, 0xa1, 0x99, 0x92, 0x9f, 0xbf, 0xdc, 0xde,
		  0xf4, 0xeb, 0xf5, 0xfc, 0xf8, 0x03, 0x14, 0x10, 0x16, 0x12, 0x0e, 0x13, 0xfe, 0x05, 0x0b, 0x05,
		  0xec, 0xeb, 0xea, 0xf2, 0xe8, 0xf0, 0xdf, 0xde, 0xdb, 0xd5, 0xd9, 0xcc, 0xdc, 0xda, 0xe4, 0xed,
		  0xee, 0xf6, 0x19, 0x1d, 0x36, 0x31, 0x27, 0x0e, 0x00, 0xfb, 0xf8, 0xf6, 0xef, 0xe6, 0xdf, 0xc6,
		  0xc4, 0xc9, 0xbd, 0xbd, 0xc1, 0xd1, 0xdd, 0xd8, 0xe7, 0xdf, 0xfc, 0x0b, 0xf5, 0xfd, 0xf8, 0xf9,
		  0xfa, 0xf5, 0xf9, 0xe2, 0xea, 0xea, 0xdb, 0xf2, 0xf2, 0xe9, 0xf5, 0xf4, 0xf9, 0x02, 0x08, 0x0b,
		  0x19, 0x0b, 0x1e, 0x18, 0x1c, 0x0f, 0x1a, 0x14, 0x1a, 0x12, 0x24, 0x1b, 0x26, 0x20, 0x27, 0x22,
		  0x20, 0x1e, 0x1e, 0x33, 0x28, 0x1e, 0x0b, 0x17, 0x13, 0x04, 0x11, 0x05, 0x00, 0x18, 0x0e, 0x04,
		  0x0e, 0x0f, 0x14, 0x1c, 0xec, 0xfb, 0xfc, 0x08, 0x09, 0xfa, 0x01, 0x05, 0x06, 0x06, 0x03, 0x08,
		  0xf2, 0xf6, 0xff, 0x0d, 0x01, 0x03, 0xf8, 0x09, 0xf2, 0xf6, 0x07, 0x09, 0x03, 0x02, 0x07, 0xfb,
		  0xf4, 0xef, 0xff, 0xef, 0xf5, 0xf3, 0xf1, 0xed, 0xf1, 0xff, 0xee, 0xf3, 0xfa, 0xf1, 0xfc, 0x08,
		  0xf8, 0x01, 0xf2, 0xff, 0xf6, 0x0b, 0xf6, 0x05, 0xff, 0x01, 0x0d, 0x01, 0x03, 0x07, 0x06, 0x0a,
		  0x10, 0x05, 0x08, 0xfc, 0xf5, 0x09, 0xf9, 0xf9, 0xf0, 0xeb, 0xf9, 0xf0, 0xf0, 0xf8, 0xf9, 0xfb,
		  0xf5, 0xf1, 0xfd, 0x08, 0x01, 0xf7, 0x0c, 0x0e, 0x02, 0xfb, 0xff, 0x08, 0x0e, 0x03, 0x02, 0xf1,
		  0xf7, 0xe8, 0xe8, 0xfd, 0xeb, 0xe5, 0xe3, 0xe9, 0x80, 0xf3, 0xff, 0xff, 0x0e, 0xfe, 0xff, 0xff,
		  0x04, 0x00, 0x00, 0x00, 0x80, 0x00, 0x00, 0x00, 0x50, 0x05, 0x00, 0x00, 0x62, 0x0e, 0x00, 0x00,
		  0x91, 0x0f, 0x00, 0x00, 0xb7, 0x15, 0x00, 0x00, 0x44, 0x1d, 0x00, 0x00, 0x91, 0x0c, 0x00, 0x00,
		  0x4c, 0x2d, 0x00, 0x00, 0xec, 0x03, 0x00, 0x00, 0x24, 0x0b, 0x00, 0x00, 0xc4, 0x09, 0x00, 0x00,
		  0x97, 0x23, 0x00, 0x00, 0xee, 0x06, 0x00, 0x00, 0xe9, 0x0b, 0x00, 0x00, 0xa6, 0x0e, 0x00, 0x00,
		  0x9e, 0x03, 0x00, 0x00, 0x2e, 0x07, 0x00, 0x00, 0x77, 0x0c, 0x00, 0x00, 0x51, 0xee, 0xff, 0xff,
		  0x82, 0x0e, 0x00, 0x00, 0xbf, 0x09, 0x00, 0x00, 0xa6, 0xf1, 0xff, 0xff, 0x91, 0x04, 0x00, 0x00,
		  0xfb, 0x0b, 0x00, 0x00, 0xd9, 0x19, 0x00, 0x00, 0xed, 0xfa, 0xff, 0xff, 0x78, 0xe1, 0xff, 0xff,
		  0xdb, 0xf9, 0xff, 0xff, 0xeb, 0xf9, 0xff, 0xff, 0x36, 0xdc, 0xff, 0xff, 0xcb, 0xfe, 0xff, 0xff,
		  0x60, 0x26, 0x00, 0x00, 0x7b, 0xda, 0xff, 0xff, 0x9a, 0xfe, 0xff, 0xff, 0x04, 0x00, 0x00, 0x00,
		  0x18, 0x00, 0x00, 0x00, 0x81, 0xef, 0xff, 0xff, 0x28, 0xe3, 0xff, 0xff, 0xd9, 0xee, 0xff, 0xff,
		  0x2a, 0xed, 0xff, 0xff, 0xf7, 0xf3, 0xff, 0xff, 0xc3, 0xf2, 0xff, 0xff, 0xbe, 0xfe, 0xff, 0xff,
		  0x04, 0x00, 0x00, 0x00, 0x80, 0x00, 0x00, 0x00, 0x22, 0xaf, 0xff, 0xff, 0xb1, 0x93, 0xff, 0xff,
		  0xa2, 0x2e, 0xff, 0xff, 0x3a, 0x1a, 0x00, 0x00, 0x5a, 0x51, 0x00, 0x00, 0x7e, 0xc8, 0x00, 0x00,
		  0xa4, 0x8c, 0x00, 0x00, 0x05, 0x7b, 0xff, 0xff, 0xba, 0x9d, 0xff, 0xff, 0xc0, 0xe3, 0xff, 0xff,
		  0x8c, 0x4f, 0x00, 0x00, 0x44, 0x86, 0x00, 0x00, 0x32, 0xf3, 0x00, 0x00, 0x3b, 0x02, 0x00, 0x00,
		  0xe3, 0x36, 0x00, 0x00, 0x03, 0x88, 0x00, 0x00, 0x9c, 0x76, 0x00, 0x00, 0x0f, 0x6a, 0x00, 0x00,
		  0x98, 0x7b, 0x00, 0x00, 0x3d, 0xa9, 0x00, 0x00, 0x5e, 0x20, 0x00, 0x00, 0xf0, 0xde, 0x00, 0x00,
		  0x0f, 0x1f, 0x00, 0x00, 0x43, 0xce, 0xfe, 0xff, 0xab, 0x2f, 0x00, 0x00, 0x83, 0x1e, 0x01, 0x00,
		  0xcc, 0x6c, 0x00, 0x00, 0x80, 0x27, 0x00, 0x00, 0x0e, 0xcb, 0x00, 0x00, 0x35, 0x0f, 0x00, 0x00,
		  0x03, 0xaf, 0xff, 0xff, 0x17, 0x64, 0x00, 0x00, 0xc0, 0xf4, 0xff, 0xff, 0xc4, 0xf4, 0xff, 0xff,
		  0x0f, 0x00, 0x00, 0x00, 0x4d, 0x4c, 0x49, 0x52, 0x20, 0x43, 0x6f, 0x6e, 0x76, 0x65, 0x72, 0x74,
		  0x65, 0x64, 0x2e, 0x00, 0x01, 0x00, 0x00, 0x00, 0x14, 0x00, 0x00, 0x00, 0x00, 0x00, 0x0e, 0x00,
		  0x18, 0x00, 0x14, 0x00, 0x10, 0x00, 0x0c, 0x00, 0x08, 0x00, 0x04, 0x00, 0x0e, 0x00, 0x00, 0x00,
		  0x14, 0x00, 0x00, 0x00, 0x1c, 0x00, 0x00, 0x00, 0xb4, 0x01, 0x00, 0x00, 0xb8, 0x01, 0x00, 0x00,
		  0xbc, 0x01, 0x00, 0x00, 0x04, 0x00, 0x00, 0x00, 0x6d, 0x61, 0x69, 0x6e, 0x00, 0x00, 0x00, 0x00,
		  0x08, 0x00, 0x00, 0x00, 0x7c, 0x01, 0x00, 0x00, 0x38, 0x01, 0x00, 0x00, 0x04, 0x01, 0x00, 0x00,
		  0xc0, 0x00, 0x00, 0x00, 0x9c, 0x00, 0x00, 0x00, 0x64, 0x00, 0x00, 0x00, 0x28, 0x00, 0x00, 0x00,
		  0x04, 0x00, 0x00, 0x00, 0x1e, 0xff, 0xff, 0xff, 0x0c, 0x00, 0x00, 0x00, 0x10, 0x00, 0x00, 0x00,
		  0x04, 0x00, 0x00, 0x00, 0x01, 0x00, 0x00, 0x00, 0x0e, 0x00, 0x00, 0x00, 0x01, 0x00, 0x00, 0x00,
		  0x0d, 0x00, 0x00, 0x00, 0x12, 0xff, 0xff, 0xff, 0x1c, 0x00, 0x00, 0x00, 0x00, 0x00, 0x00, 0x09,
		  0x1c, 0x00, 0x00, 0x00, 0x20, 0x00, 0x00, 0x00, 0x03, 0x00, 0x00, 0x00, 0x00, 0x00, 0x06, 0x00,
		  0x08, 0x00, 0x04, 0x00, 0x06, 0x00, 0x00, 0x00, 0x00, 0x00, 0x80, 0x3f, 0x01, 0x00, 0x00, 0x00,
		  0x0d, 0x00, 0x00, 0x00, 0x01, 0x00, 0x00, 0x00, 0x0c, 0x00, 0x00, 0x00, 0x4a, 0xff, 0xff, 0xff,
		  0x14, 0x00, 0x00, 0x00, 0x00, 0x00, 0x00, 0x08, 0x10, 0x00, 0x00, 0x00, 0x14, 0x00, 0x00, 0x00,
		  0x01, 0x00, 0x00, 0x00, 0xac, 0xf5, 0xff, 0xff, 0x01, 0x00, 0x00, 0x00, 0x0c, 0x00, 0x00, 0x00,
		  0x03, 0x00, 0x00, 0x00, 0x0a, 0x00, 0x00, 0x00, 0x0b, 0x00, 0x00, 0x00, 0x02, 0x00, 0x00, 0x00,
		  0xaa, 0xff, 0xff, 0xff, 0x0c, 0x00, 0x00, 0x00, 0x10, 0x00, 0x00, 0x00, 0x02, 0x00, 0x00, 0x00,
		  0x01, 0x00, 0x00, 0x00, 0x0a, 0x00, 0x00, 0x00, 0x01, 0x00, 0x00, 0x00, 0x09, 0x00, 0x00, 0x00,
		  0x9e, 0xff, 0xff, 0xff, 0x14, 0x00, 0x00, 0x00, 0x00, 0x00, 0x00, 0x08, 0x10, 0x00, 0x00, 0x00,
		  0x14, 0x00, 0x00, 0x00, 0x01, 0x00, 0x00, 0x00, 0x00, 0xf6, 0xff, 0xff, 0x01, 0x00, 0x00, 0x00,
		  0x09, 0x00, 0x00, 0x00, 0x03, 0x00, 0x00, 0x00, 0x07, 0x00, 0x00, 0x00, 0x08, 0x00, 0x00, 0x00,
		  0x03, 0x00, 0x00, 0x00, 0x00, 0x00, 0x0a, 0x00, 0x10, 0x00, 0x0c, 0x00, 0x08, 0x00, 0x04, 0x00,
		  0x0a, 0x00, 0x00, 0x00, 0x0c, 0x00, 0x00, 0x00, 0x10, 0x00, 0x00, 0x00, 0x02, 0x00, 0x00, 0x00,
		  0x01, 0x00, 0x00, 0x00, 0x07, 0x00, 0x00, 0x00, 0x01, 0x00, 0x00, 0x00, 0x06, 0x00, 0x00, 0x00,
		  0x00, 0x00, 0x0e, 0x00, 0x18, 0x00, 0x14, 0x00, 0x10, 0x00, 0x0c, 0x00, 0x0b, 0x00, 0x04, 0x00,
		  0x0e, 0x00, 0x00, 0x00, 0x14, 0x00, 0x00, 0x00, 0x00, 0x00, 0x00, 0x08, 0x10, 0x00, 0x00, 0x00,
		  0x14, 0x00, 0x00, 0x00, 0x01, 0x00, 0x00, 0x00, 0x70, 0xf6, 0xff, 0xff, 0x01, 0x00, 0x00, 0x00,
		  0x06, 0x00, 0x00, 0x00, 0x03, 0x00, 0x00, 0x00, 0x04, 0x00, 0x00, 0x00, 0x05, 0x00, 0x00, 0x00,
		  0x01, 0x00, 0x00, 0x00, 0x00, 0x00, 0x0a, 0x00, 0x0c, 0x00, 0x00, 0x00, 0x08, 0x00, 0x04, 0x00,
		  0x0a, 0x00, 0x00, 0x00, 0x08, 0x00, 0x00, 0x00, 0x0c, 0x00, 0x00, 0x00, 0x01, 0x00, 0x00, 0x00,
		  0x04, 0x00, 0x00, 0x00, 0x01, 0x00, 0x00, 0x00, 0x00, 0x00, 0x00, 0x00, 0x01, 0x00, 0x00, 0x00,
		  0x0e, 0x00, 0x00, 0x00, 0x01, 0x00, 0x00, 0x00, 0x00, 0x00, 0x00, 0x00, 0x0f, 0x00, 0x00, 0x00,
		  0x10, 0x09, 0x00, 0x00, 0x6c, 0x08, 0x00, 0x00, 0xd4, 0x07, 0x00, 0x00, 0x58, 0x07, 0x00, 0x00,
		  0x0c, 0x06, 0x00, 0x00, 0x4c, 0x05, 0x00, 0x00, 0x9c, 0x04, 0x00, 0x00, 0x18, 0x04, 0x00, 0x00,
		  0x68, 0x03, 0x00, 0x00, 0xc0, 0x02, 0x00, 0x00, 0x3c, 0x02, 0x00, 0x00, 0x8c, 0x01, 0x00, 0x00,
		  0xe4, 0x00, 0x00, 0x00, 0x60, 0x00, 0x00, 0x00, 0x04, 0x00, 0x00, 0x00, 0x42, 0xf7, 0xff, 0xff,
		  0x00, 0x00, 0x00, 0x01, 0x14, 0x00, 0x00, 0x00, 0x1c, 0x00, 0x00, 0x00, 0x1c, 0x00, 0x00, 0x00,
		  0x0f, 0x00, 0x00, 0x00, 0x34, 0x00, 0x00, 0x00, 0x02, 0x00, 0x00, 0x00, 0xff, 0xff, 0xff, 0xff,
		  0x06, 0x00, 0x00, 0x00, 0x2c, 0xf7, 0xff, 0xff, 0x19, 0x00, 0x00, 0x00, 0x53, 0x74, 0x61, 0x74,
		  0x65, 0x66, 0x75, 0x6c, 0x50, 0x61, 0x72, 0x74, 0x69, 0x74, 0x69, 0x6f, 0x6e, 0x65, 0x64, 0x43,
		  0x61, 0x6c, 0x6c, 0x3a, 0x30, 0x00, 0x00, 0x00, 0x02, 0x00, 0x00, 0x00, 0x01, 0x00, 0x00, 0x00,
		  0x06, 0x00, 0x00, 0x00, 0x8e, 0xfa, 0xff, 0xff, 0x00, 0x00, 0x00, 0x01, 0x18, 0x00, 0x00, 0x00,
		  0x20, 0x00, 0x00, 0x00, 0x3c, 0x00, 0x00, 0x00, 0x0e, 0x00, 0x00, 0x00, 0x00, 0x00, 0x00, 0x09,
		  0x58, 0x00, 0x00, 0x00, 0x02, 0x00, 0x00, 0x00, 0xff, 0xff, 0xff, 0xff, 0x06, 0x00, 0x00, 0x00,
		  0x34, 0xf8, 0xff, 0xff, 0x08, 0x00, 0x00, 0x00, 0x10, 0x00, 0x00, 0x00, 0x01, 0x00, 0x00, 0x00,
		  0x80, 0xff, 0xff, 0xff, 0xff, 0xff, 0xff, 0xff, 0x01, 0x00, 0x00, 0x00, 0x00, 0x00, 0x80, 0x3b,
		  0x20, 0x00, 0x00, 0x00, 0x73, 0x65, 0x71, 0x75, 0x65, 0x6e, 0x74, 0x69, 0x61, 0x6c, 0x2f, 0x71,
		  0x75, 0x61, 0x6e, 0x74, 0x5f, 0x64, 0x65, 0x6e, 0x73, 0x65, 0x5f, 0x32, 0x2f, 0x53, 0x6f, 0x66,
		  0x74, 0x6d, 0x61, 0x78, 0x00, 0x00, 0x00, 0x00, 0x02, 0x00, 0x00, 0x00, 0x01, 0x00, 0x00, 0x00,
		  0x06, 0x00, 0x00, 0x00, 0x0e, 0xfb, 0xff, 0xff, 0x00, 0x00, 0x00, 0x01, 0x18, 0x00, 0x00, 0x00,
		  0x20, 0x00, 0x00, 0x00, 0x40, 0x00, 0x00, 0x00, 0x0d, 0x00, 0x00, 0x00, 0x00, 0x00, 0x00, 0x09,
		  0x7c, 0x00, 0x00, 0x00, 0x02, 0x00, 0x00, 0x00, 0xff, 0xff, 0xff, 0xff, 0x06, 0x00, 0x00, 0x00,
		  0xb4, 0xf8, 0xff, 0xff, 0x08, 0x00, 0x00, 0x00, 0x14, 0x00, 0x00, 0x00, 0x01, 0x00, 0x00, 0x00,
		  0x76, 0x00, 0x00, 0x00, 0x00, 0x00, 0x00, 0x00, 0x00, 0x00, 0x00, 0x00, 0x01, 0x00, 0x00, 0x00,
		  0x9d, 0x83, 0x22, 0x3e, 0x40, 0x00, 0x00, 0x00, 0x73, 0x65, 0x71, 0x75, 0x65, 0x6e, 0x74, 0x69,
		  0x61, 0x6c, 0x2f, 0x71, 0x75, 0x61, 0x6e, 0x74, 0x5f, 0x64, 0x65, 0x6e, 0x73, 0x65, 0x5f, 0x32,
		  0x2f, 0x4d, 0x61, 0x74, 0x4d, 0x75, 0x6c, 0x3b, 0x73, 0x65, 0x71, 0x75, 0x65, 0x6e, 0x74, 0x69,
		  0x61, 0x6c, 0x2f, 0x71, 0x75, 0x61, 0x6e, 0x74, 0x5f, 0x64, 0x65, 0x6e, 0x73, 0x65, 0x5f, 0x32,
		  0x2f, 0x42, 0x69, 0x61, 0x73, 0x41, 0x64, 0x64, 0x00, 0x00, 0x00, 0x00, 0x02, 0x00, 0x00, 0x00,
		  0x01, 0x00, 0x00, 0x00, 0x06, 0x00, 0x00, 0x00, 0x66, 0xfc, 0xff, 0xff, 0x14, 0x00, 0x00, 0x00,
		  0x34, 0x00, 0x00, 0x00, 0x0c, 0x00, 0x00, 0x00, 0x00, 0x00, 0x00, 0x09, 0x8c, 0x00, 0x00, 0x00,
		  0x44, 0xf9, 0xff, 0xff, 0x08, 0x00, 0x00, 0x00, 0x14, 0x00, 0x00, 0x00, 0x01, 0x00, 0x00, 0x00,
		  0x00, 0x00, 0x00, 0x00, 0x00, 0x00, 0x00, 0x00, 0x00, 0x00, 0x00, 0x00, 0x01, 0x00, 0x00, 0x00,
		  0x7c, 0x76, 0x77, 0x3d, 0x5f, 0x00, 0x00, 0x00, 0x73, 0x65, 0x71, 0x75, 0x65, 0x6e, 0x74, 0x69,
		  0x61, 0x6c, 0x2f, 0x71, 0x75, 0x61, 0x6e, 0x74, 0x5f, 0x64, 0x65, 0x6e, 0x73, 0x65, 0x5f, 0x32,
		  0x2f, 0x4d, 0x61, 0x74, 0x4d, 0x75, 0x6c, 0x3b, 0x73, 0x65, 0x71, 0x75, 0x65, 0x6e, 0x74, 0x69,
		  0x61, 0x6c, 0x2f, 0x71, 0x75, 0x61, 0x6e, 0x74, 0x5f, 0x64, 0x65, 0x6e, 0x73, 0x65, 0x5f, 0x32,
		  0x2f, 0x4c, 0x61, 0x73, 0x74, 0x56, 0x61, 0x6c, 0x75, 0x65, 0x51, 0x75, 0x61, 0x6e, 0x74, 0x2f,
		  0x46, 0x61, 0x6b, 0x65, 0x51, 0x75, 0x61, 0x6e, 0x74, 0x57, 0x69, 0x74, 0x68, 0x4d, 0x69, 0x6e,
		  0x4d, 0x61, 0x78, 0x56, 0x61, 0x72, 0x73, 0x00, 0x02, 0x00, 0x00, 0x00, 0x06, 0x00, 0x00, 0x00,
		  0x20, 0x00, 0x00, 0x00, 0x5e, 0xfc, 0xff, 0xff, 0x00, 0x00, 0x00, 0x01, 0x18, 0x00, 0x00, 0x00,
		  0x20, 0x00, 0x00, 0x00, 0x3c, 0x00, 0x00, 0x00, 0x0b, 0x00, 0x00, 0x00, 0x00, 0x00, 0x00, 0x09,
		  0x58, 0x00, 0x00, 0x00, 0x02, 0x00, 0x00, 0x00, 0xff, 0xff, 0xff, 0xff, 0x20, 0x00, 0x00, 0x00,
		  0x04, 0xfa, 0xff, 0xff, 0x08, 0x00, 0x00, 0x00, 0x10, 0x00, 0x00, 0x00, 0x01, 0x00, 0x00, 0x00,
		  0x80, 0xff, 0xff, 0xff, 0xff, 0xff, 0xff, 0xff, 0x01, 0x00, 0x00, 0x00, 0x00, 0x00, 0x80, 0x3b,
		  0x20, 0x00, 0x00, 0x00, 0x73, 0x65, 0x71, 0x75, 0x65, 0x6e, 0x74, 0x69, 0x61, 0x6c, 0x2f, 0x71,
		  0x75, 0x61, 0x6e, 0x74, 0x5f, 0x64, 0x65, 0x6e, 0x73, 0x65, 0x5f, 0x31, 0x2f, 0x53, 0x69, 0x67,
		  0x6d, 0x6f, 0x69, 0x64, 0x00, 0x00, 0x00, 0x00, 0x02, 0x00, 0x00, 0x00, 0x01, 0x00, 0x00, 0x00,
		  0x20, 0x00, 0x00, 0x00, 0xde, 0xfc, 0xff, 0xff, 0x00, 0x00, 0x00, 0x01, 0x18, 0x00, 0x00, 0x00,
		  0x20, 0x00, 0x00, 0x00, 0x40, 0x00, 0x00, 0x00, 0x0a, 0x00, 0x00, 0x00, 0x00, 0x00, 0x00, 0x09,
		  0x7c, 0x00, 0x00, 0x00, 0x02, 0x00, 0x00, 0x00, 0xff, 0xff, 0xff, 0xff, 0x20, 0x00, 0x00, 0x00,
		  0x84, 0xfa, 0xff, 0xff, 0x08, 0x00, 0x00, 0x00, 0x14, 0x00, 0x00, 0x00, 0x01, 0x00, 0x00, 0x00,
		  0xfb, 0xff, 0xff, 0xff, 0xff, 0xff, 0xff, 0xff, 0x00, 0x00, 0x00, 0x00, 0x01, 0x00, 0x00, 0x00,
		  0xcb, 0x63, 0x3d, 0x3d, 0x40, 0x00, 0x00, 0x00, 0x73, 0x65, 0x71, 0x75, 0x65, 0x6e, 0x74, 0x69,
		  0x61, 0x6c, 0x2f, 0x71, 0x75, 0x61, 0x6e, 0x74, 0x5f, 0x64, 0x65, 0x6e, 0x73, 0x65, 0x5f, 0x31,
		  0x2f, 0x4d, 0x61, 0x74, 0x4d, 0x75, 0x6c, 0x3b, 0x73, 0x65, 0x71, 0x75, 0x65, 0x6e, 0x74, 0x69,
		  0x61, 0x6c, 0x2f, 0x71, 0x75, 0x61, 0x6e, 0x74, 0x5f, 0x64, 0x65, 0x6e, 0x73, 0x65, 0x5f, 0x31,
		  0x2f, 0x42, 0x69, 0x61, 0x73, 0x41, 0x64, 0x64, 0x00, 0x00, 0x00, 0x00, 0x02, 0x00, 0x00, 0x00,
		  0x01, 0x00, 0x00, 0x00, 0x20, 0x00, 0x00, 0x00, 0x36, 0xfe, 0xff, 0xff, 0x14, 0x00, 0x00, 0x00,
		  0x34, 0x00, 0x00, 0x00, 0x09, 0x00, 0x00, 0x00, 0x00, 0x00, 0x00, 0x09, 0x8c, 0x00, 0x00, 0x00,
		  0x14, 0xfb, 0xff, 0xff, 0x08, 0x00, 0x00, 0x00, 0x14, 0x00, 0x00, 0x00, 0x01, 0x00, 0x00, 0x00,
		  0x00, 0x00, 0x00, 0x00, 0x00, 0x00, 0x00, 0x00, 0x00, 0x00, 0x00, 0x00, 0x01, 0x00, 0x00, 0x00,
		  0x95, 0x4c, 0xd3, 0x3c, 0x5f, 0x00, 0x00, 0x00, 0x73, 0x65, 0x71, 0x75, 0x65, 0x6e, 0x74, 0x69,
		  0x61, 0x6c, 0x2f, 0x71, 0x75, 0x61, 0x6e, 0x74, 0x5f, 0x64, 0x65, 0x6e, 0x73, 0x65, 0x5f, 0x31,
		  0x2f, 0x4d, 0x61, 0x74, 0x4d, 0x75, 0x6c, 0x3b, 0x73, 0x65, 0x71, 0x75, 0x65, 0x6e, 0x74, 0x69,
		  0x61, 0x6c, 0x2f, 0x71, 0x75, 0x61, 0x6e, 0x74, 0x5f, 0x64, 0x65, 0x6e, 0x73, 0x65, 0x5f, 0x31,
		  0x2f, 0x4c, 0x61, 0x73, 0x74, 0x56, 0x61, 0x6c, 0x75, 0x65, 0x51, 0x75, 0x61, 0x6e, 0x74, 0x2f,
		  0x46, 0x61, 0x6b, 0x65, 0x51, 0x75, 0x61, 0x6e, 0x74, 0x57, 0x69, 0x74, 0x68, 0x4d, 0x69, 0x6e,
		  0x4d, 0x61, 0x78, 0x56, 0x61, 0x72, 0x73, 0x00, 0x02, 0x00, 0x00, 0x00, 0x20, 0x00, 0x00, 0x00,
		  0x20, 0x00, 0x00, 0x00, 0x2e, 0xfe, 0xff, 0xff, 0x00, 0x00, 0x00, 0x01, 0x18, 0x00, 0x00, 0x00,
		  0x20, 0x00, 0x00, 0x00, 0x40, 0x00, 0x00, 0x00, 0x08, 0x00, 0x00, 0x00, 0x00, 0x00, 0x00, 0x09,
		  0x58, 0x00, 0x00, 0x00, 0x02, 0x00, 0x00, 0x00, 0xff, 0xff, 0xff, 0xff, 0x20, 0x00, 0x00, 0x00,
		  0xd4, 0xfb, 0xff, 0xff, 0x08, 0x00, 0x00, 0x00, 0x14, 0x00, 0x00, 0x00, 0x01, 0x00, 0x00, 0x00,
		  0x80, 0xff, 0xff, 0xff, 0xff, 0xff, 0xff, 0xff, 0x00, 0x00, 0x00, 0x00, 0x01, 0x00, 0x00, 0x00,
		  0x00, 0x00, 0x80, 0x3b, 0x1e, 0x00, 0x00, 0x00, 0x73, 0x65, 0x71, 0x75, 0x65, 0x6e, 0x74, 0x69,
		  0x61, 0x6c, 0x2f, 0x71, 0x75, 0x61, 0x6e, 0x74, 0x5f, 0x64, 0x65, 0x6e, 0x73, 0x65, 0x2f, 0x53,
		  0x69, 0x67, 0x6d, 0x6f, 0x69, 0x64, 0x00, 0x00, 0x02, 0x00, 0x00, 0x00, 0x01, 0x00, 0x00, 0x00,
		  0x20, 0x00, 0x00, 0x00, 0xae, 0xfe, 0xff, 0xff, 0x00, 0x00, 0x00, 0x01, 0x18, 0x00, 0x00, 0x00,
		  0x20, 0x00, 0x00, 0x00, 0x3c, 0x00, 0x00, 0x00, 0x07, 0x00, 0x00, 0x00, 0x00, 0x00, 0x00, 0x09,
		  0x74, 0x00, 0x00, 0x00, 0x02, 0x00, 0x00, 0x00, 0xff, 0xff, 0xff, 0xff, 0x20, 0x00, 0x00, 0x00,
		  0x54, 0xfc, 0xff, 0xff, 0x08, 0x00, 0x00, 0x00, 0x10, 0x00, 0x00, 0x00, 0x01, 0x00, 0x00, 0x00,
		  0x09, 0x00, 0x00, 0x00, 0x00, 0x00, 0x00, 0x00, 0x01, 0x00, 0x00, 0x00, 0xa5, 0x5a, 0xaa, 0x3d,
		  0x3c, 0x00, 0x00, 0x00, 0x73, 0x65, 0x71, 0x75, 0x65, 0x6e, 0x74, 0x69, 0x61, 0x6c, 0x2f, 0x71,
		  0x75, 0x61, 0x6e, 0x74, 0x5f, 0x64, 0x65, 0x6e, 0x73, 0x65, 0x2f, 0x4d, 0x61, 0x74, 0x4d, 0x75,
		  0x6c, 0x3b, 0x73, 0x65, 0x71, 0x75, 0x65, 0x6e, 0x74, 0x69, 0x61, 0x6c, 0x2f, 0x71, 0x75, 0x61,
		  0x6e, 0x74, 0x5f, 0x64, 0x65, 0x6e, 0x73, 0x65, 0x2f, 0x42, 0x69, 0x61, 0x73, 0x41, 0x64, 0x64,
		  0x00, 0x00, 0x00, 0x00, 0x02, 0x00, 0x00, 0x00, 0x01, 0x00, 0x00, 0x00, 0x20, 0x00, 0x00, 0x00,
		  0x00, 0x00, 0x0e, 0x00, 0x18, 0x00, 0x14, 0x00, 0x13, 0x00, 0x0c, 0x00, 0x08, 0x00, 0x04, 0x00,
		  0x0e, 0x00, 0x00, 0x00, 0x14, 0x00, 0x00, 0x00, 0x30, 0x00, 0x00, 0x00, 0x06, 0x00, 0x00, 0x00,
		  0x00, 0x00, 0x00, 0x09, 0x84, 0x00, 0x00, 0x00, 0xec, 0xfc, 0xff, 0xff, 0x08, 0x00, 0x00, 0x00,
		  0x10, 0x00, 0x00, 0x00, 0x01, 0x00, 0x00, 0x00, 0x00, 0x00, 0x00, 0x00, 0x00, 0x00, 0x00, 0x00,
		  0x01, 0x00, 0x00, 0x00, 0x23, 0x40, 0x6b, 0x3c, 0x5b, 0x00, 0x00, 0x00, 0x73, 0x65, 0x71, 0x75,
		  0x65, 0x6e, 0x74, 0x69, 0x61, 0x6c, 0x2f, 0x71, 0x75, 0x61, 0x6e, 0x74, 0x5f, 0x64, 0x65, 0x6e,
		  0x73, 0x65, 0x2f, 0x4d, 0x61, 0x74, 0x4d, 0x75, 0x6c, 0x3b, 0x73, 0x65, 0x71, 0x75, 0x65, 0x6e,
		  0x74, 0x69, 0x61, 0x6c, 0x2f, 0x71, 0x75, 0x61, 0x6e, 0x74, 0x5f, 0x64, 0x65, 0x6e, 0x73, 0x65,
		  0x2f, 0x4c, 0x61, 0x73, 0x74, 0x56, 0x61, 0x6c, 0x75, 0x65, 0x51, 0x75, 0x61, 0x6e, 0x74, 0x2f,
		  0x46, 0x61, 0x6b, 0x65, 0x51, 0x75, 0x61, 0x6e, 0x74, 0x57, 0x69, 0x74, 0x68, 0x4d, 0x69, 0x6e,
		  0x4d, 0x61, 0x78, 0x56, 0x61, 0x72, 0x73, 0x00, 0x02, 0x00, 0x00, 0x00, 0x20, 0x00, 0x00, 0x00,
		  0x64, 0x00, 0x00, 0x00, 0x00, 0x00, 0x16, 0x00, 0x20, 0x00, 0x1c, 0x00, 0x1b, 0x00, 0x14, 0x00,
		  0x10, 0x00, 0x0c, 0x00, 0x00, 0x00, 0x00, 0x00, 0x08, 0x00, 0x07, 0x00, 0x16, 0x00, 0x00, 0x00,
		  0x00, 0x00, 0x00, 0x01, 0x18, 0x00, 0x00, 0x00, 0x20, 0x00, 0x00, 0x00, 0x3c, 0x00, 0x00, 0x00,
		  0x05, 0x00, 0x00, 0x00, 0x00, 0x00, 0x00, 0x09, 0x20, 0x01, 0x00, 0x00, 0x02, 0x00, 0x00, 0x00,
		  0xff, 0xff, 0xff, 0xff, 0x64, 0x00, 0x00, 0x00, 0xbc, 0xfd, 0xff, 0xff, 0x08, 0x00, 0x00, 0x00,
		  0x10, 0x00, 0x00, 0x00, 0x01, 0x00, 0x00, 0x00, 0x80, 0xff, 0xff, 0xff, 0xff, 0xff, 0xff, 0xff,
		  0x01, 0x00, 0x00, 0x00, 0x81, 0x80, 0x80, 0x3b, 0xeb, 0x00, 0x00, 0x00, 0x73, 0x65, 0x71, 0x75,
		  0x65, 0x6e, 0x74, 0x69, 0x61, 0x6c, 0x2f, 0x71, 0x75, 0x61, 0x6e, 0x74, 0x69, 0x7a, 0x65, 0x5f,
		  0x6c, 0x61, 0x79, 0x65, 0x72, 0x2f, 0x41, 0x6c, 0x6c, 0x56, 0x61, 0x6c, 0x75, 0x65, 0x73, 0x51,
		  0x75, 0x61, 0x6e, 0x74, 0x69, 0x7a, 0x65, 0x2f, 0x46, 0x61, 0x6b, 0x65, 0x51, 0x75, 0x61, 0x6e,
		  0x74, 0x57, 0x69, 0x74, 0x68, 0x4d, 0x69, 0x6e, 0x4d, 0x61, 0x78, 0x56, 0x61, 0x72, 0x73, 0x3b,
		  0x73, 0x65, 0x71, 0x75, 0x65, 0x6e, 0x74, 0x69, 0x61, 0x6c, 0x2f, 0x71, 0x75, 0x61, 0x6e, 0x74,
		  0x69, 0x7a, 0x65, 0x5f, 0x6c, 0x61, 0x79, 0x65, 0x72, 0x2f, 0x41, 0x6c, 0x6c, 0x56, 0x61, 0x6c,
		  0x75, 0x65, 0x73, 0x51, 0x75, 0x61, 0x6e, 0x74, 0x69, 0x7a, 0x65, 0x2f, 0x46, 0x61, 0x6b, 0x65,
		  0x51, 0x75, 0x61, 0x6e, 0x74, 0x57, 0x69, 0x74, 0x68, 0x4d, 0x69, 0x6e, 0x4d, 0x61, 0x78, 0x56,
		  0x61, 0x72, 0x73, 0x2f, 0x52, 0x65, 0x61, 0x64, 0x56, 0x61, 0x72, 0x69, 0x61, 0x62, 0x6c, 0x65,
		  0x4f, 0x70, 0x3b, 0x73, 0x65, 0x71, 0x75, 0x65, 0x6e, 0x74, 0x69, 0x61, 0x6c, 0x2f, 0x71, 0x75,
		  0x61, 0x6e, 0x74, 0x69, 0x7a, 0x65, 0x5f, 0x6c, 0x61, 0x79, 0x65, 0x72, 0x2f, 0x41, 0x6c, 0x6c,
		  0x56, 0x61, 0x6c, 0x75, 0x65, 0x73, 0x51, 0x75, 0x61, 0x6e, 0x74, 0x69, 0x7a, 0x65, 0x2f, 0x46,
		  0x61, 0x6b, 0x65, 0x51, 0x75, 0x61, 0x6e, 0x74, 0x57, 0x69, 0x74, 0x68, 0x4d, 0x69, 0x6e, 0x4d,
		  0x61, 0x78, 0x56, 0x61, 0x72, 0x73, 0x2f, 0x52, 0x65, 0x61, 0x64, 0x56, 0x61, 0x72, 0x69, 0x61,
		  0x62, 0x6c, 0x65, 0x4f, 0x70, 0x5f, 0x31, 0x00, 0x02, 0x00, 0x00, 0x00, 0x01, 0x00, 0x00, 0x00,
		  0x64, 0x00, 0x00, 0x00, 0x0a, 0xff, 0xff, 0xff, 0x00, 0x00, 0x00, 0x01, 0x14, 0x00, 0x00, 0x00,
		  0x30, 0x00, 0x00, 0x00, 0x04, 0x00, 0x00, 0x00, 0x00, 0x00, 0x00, 0x02, 0x58, 0x00, 0x00, 0x00,
		  0xf4, 0xfe, 0xff, 0xff, 0x08, 0x00, 0x00, 0x00, 0x10, 0x00, 0x00, 0x00, 0x01, 0x00, 0x00, 0x00,
		  0x00, 0x00, 0x00, 0x00, 0x00, 0x00, 0x00, 0x00, 0x01, 0x00, 0x00, 0x00, 0x95, 0x4c, 0xd3, 0x38,
		  0x2f, 0x00, 0x00, 0x00, 0x73, 0x65, 0x71, 0x75, 0x65, 0x6e, 0x74, 0x69, 0x61, 0x6c, 0x2f, 0x71,
		  0x75, 0x61, 0x6e, 0x74, 0x5f, 0x64, 0x65, 0x6e, 0x73, 0x65, 0x5f, 0x31, 0x2f, 0x42, 0x69, 0x61,
		  0x73, 0x41, 0x64, 0x64, 0x2f, 0x52, 0x65, 0x61, 0x64, 0x56, 0x61, 0x72, 0x69, 0x61, 0x62, 0x6c,
		  0x65, 0x4f, 0x70, 0x00, 0x01, 0x00, 0x00, 0x00, 0x20, 0x00, 0x00, 0x00, 0x82, 0xff, 0xff, 0xff,
		  0x00, 0x00, 0x00, 0x01, 0x14, 0x00, 0x00, 0x00, 0x34, 0x00, 0x00, 0x00, 0x03, 0x00, 0x00, 0x00,
		  0x00, 0x00, 0x00, 0x02, 0x5c, 0x00, 0x00, 0x00, 0x6c, 0xff, 0xff, 0xff, 0x08, 0x00, 0x00, 0x00,
		  0x14, 0x00, 0x00, 0x00, 0x01, 0x00, 0x00, 0x00, 0x00, 0x00, 0x00, 0x00, 0x00, 0x00, 0x00, 0x00,
		  0x00, 0x00, 0x00, 0x00, 0x01, 0x00, 0x00, 0x00, 0x7c, 0x76, 0x77, 0x39, 0x2f, 0x00, 0x00, 0x00,
		  0x73, 0x65, 0x71, 0x75, 0x65, 0x6e, 0x74, 0x69, 0x61, 0x6c, 0x2f, 0x71, 0x75, 0x61, 0x6e, 0x74,
		  0x5f, 0x64, 0x65, 0x6e, 0x73, 0x65, 0x5f, 0x32, 0x2f, 0x42, 0x69, 0x61, 0x73, 0x41, 0x64, 0x64,
		  0x2f, 0x52, 0x65, 0x61, 0x64, 0x56, 0x61, 0x72, 0x69, 0x61, 0x62, 0x6c, 0x65, 0x4f, 0x70, 0x00,
		  0x01, 0x00, 0x00, 0x00, 0x06, 0x00, 0x00, 0x00, 0x00, 0x00, 0x16, 0x00, 0x1c, 0x00, 0x18, 0x00,
		  0x17, 0x00, 0x10, 0x00, 0x0c, 0x00, 0x08, 0x00, 0x00, 0x00, 0x00, 0x00, 0x00, 0x00, 0x07, 0x00,
		  0x16, 0x00, 0x00, 0x00, 0x00, 0x00, 0x00, 0x01, 0x20, 0x00, 0x00, 0x00, 0x40, 0x00, 0x00, 0x00,
		  0x02, 0x00, 0x00, 0x00, 0x00, 0x00, 0x00, 0x02, 0x68, 0x00, 0x00, 0x00, 0x0c, 0x00, 0x0c, 0x00,
		  0x00, 0x00, 0x00, 0x00, 0x08, 0x00, 0x04, 0x00, 0x0c, 0x00, 0x00, 0x00, 0x08, 0x00, 0x00, 0x00,
		  0x14, 0x00, 0x00, 0x00, 0x01, 0x00, 0x00, 0x00, 0x00, 0x00, 0x00, 0x00, 0x00, 0x00, 0x00, 0x00,
		  0x00, 0x00, 0x00, 0x00, 0x01, 0x00, 0x00, 0x00, 0x50, 0x2c, 0x6c, 0x38, 0x2d, 0x00, 0x00, 0x00,
		  0x73, 0x65, 0x71, 0x75, 0x65, 0x6e, 0x74, 0x69, 0x61, 0x6c, 0x2f, 0x71, 0x75, 0x61, 0x6e, 0x74,
		  0x5f, 0x64, 0x65, 0x6e, 0x73, 0x65, 0x2f, 0x42, 0x69, 0x61, 0x73, 0x41, 0x64, 0x64, 0x2f, 0x52,
		  0x65, 0x61, 0x64, 0x56, 0x61, 0x72, 0x69, 0x61, 0x62, 0x6c, 0x65, 0x4f, 0x70, 0x00, 0x00, 0x00,
		  0x01, 0x00, 0x00, 0x00, 0x20, 0x00, 0x00, 0x00, 0x00, 0x00, 0x16, 0x00, 0x1c, 0x00, 0x18, 0x00,
		  0x00, 0x00, 0x14, 0x00, 0x10, 0x00, 0x0c, 0x00, 0x00, 0x00, 0x00, 0x00, 0x08, 0x00, 0x07, 0x00,
		  0x16, 0x00, 0x00, 0x00, 0x00, 0x00, 0x00, 0x01, 0x14, 0x00, 0x00, 0x00, 0x20, 0x00, 0x00, 0x00,
		  0x20, 0x00, 0x00, 0x00, 0x01, 0x00, 0x00, 0x00, 0x38, 0x00, 0x00, 0x00, 0x02, 0x00, 0x00, 0x00,
		  0xff, 0xff, 0xff, 0xff, 0x64, 0x00, 0x00, 0x00, 0x04, 0x00, 0x04, 0x00, 0x04, 0x00, 0x00, 0x00,
		  0x19, 0x00, 0x00, 0x00, 0x73, 0x65, 0x72, 0x76, 0x69, 0x6e, 0x67, 0x5f, 0x64, 0x65, 0x66, 0x61,
		  0x75, 0x6c, 0x74, 0x5f, 0x69, 0x6e, 0x70, 0x75, 0x74, 0x5f, 0x31, 0x3a, 0x30, 0x00, 0x00, 0x00,
		  0x02, 0x00, 0x00, 0x00, 0x01, 0x00, 0x00, 0x00, 0x64, 0x00, 0x00, 0x00, 0x05, 0x00, 0x00, 0x00,
		  0x6c, 0x00, 0x00, 0x00, 0x4c, 0x00, 0x00, 0x00, 0x2c, 0x00, 0x00, 0x00, 0x18, 0x00, 0x00, 0x00,
		  0x04, 0x00, 0x00, 0x00, 0xd0, 0xff, 0xff, 0xff, 0x06, 0x00, 0x00, 0x00, 0x02, 0x00, 0x00, 0x00,
		  0x00, 0x00, 0x00, 0x06, 0xe0, 0xff, 0xff, 0xff, 0x19, 0x00, 0x00, 0x00, 0x02, 0x00, 0x00, 0x00,
		  0x00, 0x00, 0x00, 0x19, 0xf0, 0xff, 0xff, 0xff, 0x0e, 0x00, 0x00, 0x00, 0x02, 0x00, 0x00, 0x00,
		  0x00, 0x00, 0x00, 0x0e, 0x0c, 0x00, 0x10, 0x00, 0x0f, 0x00, 0x00, 0x00, 0x08, 0x00, 0x04, 0x00,
		  0x0c, 0x00, 0x00, 0x00, 0x09, 0x00, 0x00, 0x00, 0x04, 0x00, 0x00, 0x00, 0x00, 0x00, 0x00, 0x09,
		  0x0c, 0x00, 0x0c, 0x00, 0x0b, 0x00, 0x00, 0x00, 0x00, 0x00, 0x04, 0x00, 0x0c, 0x00, 0x00, 0x00,
		  0x72, 0x00, 0x00, 0x00, 0x00, 0x00, 0x00, 0x72

};

const uint32_t modelLen = sizeof(model);

}
